{
  "version": "1.0",
  "truncation": null,
  "padding": null,
  "added_tokens": [
    {
      "id": 0,
      "content": "<pad>",
      "single_word": false,
      "lstrip": false,
      "rstrip": false,
      "normalized": false,
      "special": true
    },
    {
      "id": 1,
      "content": "<unk>",
      "single_word": false,
      "lstrip": false,
      "rstrip": false,
      "normalized": false,
      "special": true
    }
  ],
  "normalizer": null,
  "pre_tokenizer": {
    "type": "Whitespace"
  },
  "post_processor": null,
  "decoder": null,
  "model": {
    "type": "BPE",
    "dropout": null,
    "unk_token": "<unk>",
    "continuing_subword_prefix": "##",
    "end_of_word_suffix": null,
    "fuse_unk": false,
    "byte_fallback": false,
    "ignore_merges": false,
    "vocab": {
      "<pad>": 0,
      "<unk>": 1,
      "0": 2,
      "1": 3,
      "2": 4,
      "3": 5,
      "4": 6,
      "5": 7,
      "6": 8,
      "7": 9,
      "8": 10,
      "9": 11,
      "\\": 12,
      "a": 13,
      "b": 14,
      "c": 15,
      "d": 16,
      "e": 17,
      "f": 18,
      "g": 19,
      "h": 20,
      "i": 21,
      "j": 22,
      "k": 23,
      "l": 24,
      "m": 25,
      "n": 26,
      "o": 27,
      "p": 28,
      "q": 29,
      "r": 30,
      "s": 31,
      "t": 32,
      "u": 33,
      "v": 34,
      "w": 35,
      "x": 36,
      "y": 37,
      "z": 38,
      "¡": 39,
      "¤": 40,
      "§": 41,
      "¨": 42,
      "­": 43,
      "°": 44,
      "²": 45,
      "³": 46,
      "´": 47,
      "·": 48,
      "¿": 49,
      "×": 50,
      "÷": 51,
      "˚": 52,
      "π": 53,
      "ω": 54,
      "ᆞ": 55,
      "ᆨ": 56,
      "ᆩ": 57,
      "ᆫ": 58,
      "ᆬ": 59,
      "ᆭ": 60,
      "ᆮ": 61,
      "ᆯ": 62,
      "ᆰ": 63,
      "ᆱ": 64,
      "ᆶ": 65,
      "ᆷ": 66,
      "ᆸ": 67,
      "ᆹ": 68,
      "ᆺ": 69,
      "ᆻ": 70,
      "ᆼ": 71,
      "ᆽ": 72,
      "ᆾ": 73,
      "ᆿ": 74,
      "ᇀ": 75,
      "ᇁ": 76,
      "ᇂ": 77,
      "‘": 78,
      "’": 79,
      "“": 80,
      "”": 81,
      "‥": 82,
      "…": 83,
      "‰": 84,
      "※": 85,
      "ⁿ": 86,
      "₂": 87,
      "ⅰ": 88,
      "ⅱ": 89,
      "ⅲ": 90,
      "←": 91,
      "↑": 92,
      "→": 93,
      "↓": 94,
      "↖": 95,
      "↗": 96,
      "↘": 97,
      "∀": 98,
      "∇": 99,
      "∼": 100,
      "≤": 101,
      "≥": 102,
      "⊙": 103,
      "⌒": 104,
      "①": 105,
      "②": 106,
      "⑦": 107,
      "⑹": 108,
      "ⓒ": 109,
      "ⓛ": 110,
      "ⓞ": 111,
      "─": 112,
      "━": 113,
      "┏": 114,
      "┑": 115,
      "■": 116,
      "□": 117,
      "△": 118,
      "▶": 119,
      "▷": 120,
      "▼": 121,
      "▽": 122,
      "◀": 123,
      "◁": 124,
      "◆": 125,
      "◇": 126,
      "○": 127,
      "◎": 128,
      "●": 129,
      "◐": 130,
      "◑": 131,
      "★": 132,
      "☆": 133,
      "☜": 134,
      "☞": 135,
      "☻": 136,
      "♂": 137,
      "♡": 138,
      "♣": 139,
      "♤": 140,
      "♥": 141,
      "♧": 142,
      "♨": 143,
      "♩": 144,
      "♪": 145,
      "♫": 146,
      "♬": 147,
      "、": 148,
      "。": 149,
      "《": 150,
      "》": 151,
      "「": 152,
      "」": 153,
      "『": 154,
      "』": 155,
      "【": 156,
      "】": 157,
      "あ": 158,
      "い": 159,
      "う": 160,
      "え": 161,
      "お": 162,
      "か": 163,
      "が": 164,
      "き": 165,
      "く": 166,
      "け": 167,
      "こ": 168,
      "さ": 169,
      "し": 170,
      "す": 171,
      "せ": 172,
      "そ": 173,
      "た": 174,
      "だ": 175,
      "っ": 176,
      "つ": 177,
      "づ": 178,
      "て": 179,
      "で": 180,
      "と": 181,
      "な": 182,
      "に": 183,
      "ね": 184,
      "の": 185,
      "は": 186,
      "ひ": 187,
      "ほ": 188,
      "ぽ": 189,
      "ま": 190,
      "む": 191,
      "も": 192,
      "ゃ": 193,
      "よ": 194,
      "ら": 195,
      "り": 196,
      "る": 197,
      "れ": 198,
      "ろ": 199,
      "わ": 200,
      "を": 201,
      "ん": 202,
      "イ": 203,
      "ウ": 204,
      "エ": 205,
      "カ": 206,
      "ガ": 207,
      "ク": 208,
      "グ": 209,
      "コ": 210,
      "シ": 211,
      "ス": 212,
      "セ": 213,
      "タ": 214,
      "ダ": 215,
      "チ": 216,
      "ッ": 217,
      "テ": 218,
      "デ": 219,
      "ト": 220,
      "ニ": 221,
      "ノ": 222,
      "バ": 223,
      "パ": 224,
      "ヒ": 225,
      "ビ": 226,
      "ピ": 227,
      "ベ": 228,
      "マ": 229,
      "ミ": 230,
      "ム": 231,
      "メ": 232,
      "ョ": 233,
      "ヨ": 234,
      "リ": 235,
      "ル": 236,
      "ロ": 237,
      "ワ": 238,
      "ン": 239,
      "ㄱ": 240,
      "ㄲ": 241,
      "ㄳ": 242,
      "ㄴ": 243,
      "ㄵ": 244,
      "ㄶ": 245,
      "ㄷ": 246,
      "ㄸ": 247,
      "ㄹ": 248,
      "ㄺ": 249,
      "ㄻ": 250,
      "ㅀ": 251,
      "ㅁ": 252,
      "ㅂ": 253,
      "ㅃ": 254,
      "ㅄ": 255,
      "ㅅ": 256,
      "ㅆ": 257,
      "ㅇ": 258,
      "ㅈ": 259,
      "ㅉ": 260,
      "ㅊ": 261,
      "ㅋ": 262,
      "ㅌ": 263,
      "ㅍ": 264,
      "ㅎ": 265,
      "ㅏ": 266,
      "ㅐ": 267,
      "ㅑ": 268,
      "ㅒ": 269,
      "ㅓ": 270,
      "ㅔ": 271,
      "ㅕ": 272,
      "ㅖ": 273,
      "ㅗ": 274,
      "ㅘ": 275,
      "ㅚ": 276,
      "ㅛ": 277,
      "ㅜ": 278,
      "ㅝ": 279,
      "ㅞ": 280,
      "ㅟ": 281,
      "ㅠ": 282,
      "ㅡ": 283,
      "ㅢ": 284,
      "ㅣ": 285,
      "ㅤ": 286,
      "ㆀ": 287,
      "ㆍ": 288,
      "一": 289,
      "三": 290,
      "上": 291,
      "下": 292,
      "世": 293,
      "丙": 294,
      "中": 295,
      "乃": 296,
      "也": 297,
      "亞": 298,
      "亡": 299,
      "人": 300,
      "低": 301,
      "佑": 302,
      "作": 303,
      "侖": 304,
      "信": 305,
      "候": 306,
      "倭": 307,
      "傑": 308,
      "僞": 309,
      "先": 310,
      "典": 311,
      "凡": 312,
      "凸": 313,
      "出": 314,
      "刀": 315,
      "刻": 316,
      "前": 317,
      "力": 318,
      "助": 319,
      "勇": 320,
      "化": 321,
      "北": 322,
      "千": 323,
      "及": 324,
      "友": 325,
      "反": 326,
      "古": 327,
      "史": 328,
      "名": 329,
      "吐": 330,
      "味": 331,
      "品": 332,
      "善": 333,
      "喜": 334,
      "器": 335,
      "型": 336,
      "塵": 337,
      "外": 338,
      "大": 339,
      "天": 340,
      "失": 341,
      "女": 342,
      "好": 343,
      "娼": 344,
      "婦": 345,
      "子": 346,
      "孝": 347,
      "宋": 348,
      "完": 349,
      "定": 350,
      "害": 351,
      "家": 352,
      "小": 353,
      "尾": 354,
      "山": 355,
      "岡": 356,
      "峰": 357,
      "峽": 358,
      "希": 359,
      "師": 360,
      "常": 361,
      "年": 362,
      "幸": 363,
      "庭": 364,
      "式": 365,
      "張": 366,
      "彩": 367,
      "彼": 368,
      "待": 369,
      "後": 370,
      "復": 371,
      "心": 372,
      "必": 373,
      "忍": 374,
      "忠": 375,
      "念": 376,
      "急": 377,
      "性": 378,
      "悲": 379,
      "情": 380,
      "惡": 381,
      "愛": 382,
      "感": 383,
      "慧": 384,
      "慰": 385,
      "慶": 386,
      "憎": 387,
      "戰": 388,
      "手": 389,
      "故": 390,
      "敵": 391,
      "新": 392,
      "旋": 393,
      "日": 394,
      "映": 395,
      "曰": 396,
      "曲": 397,
      "最": 398,
      "會": 399,
      "月": 400,
      "有": 401,
      "望": 402,
      "期": 403,
      "木": 404,
      "末": 405,
      "本": 406,
      "朴": 407,
      "林": 408,
      "柱": 409,
      "棒": 410,
      "様": 411,
      "檢": 412,
      "歌": 413,
      "武": 414,
      "死": 415,
      "殖": 416,
      "母": 417,
      "氣": 418,
      "水": 419,
      "永": 420,
      "求": 421,
      "江": 422,
      "法": 423,
      "派": 424,
      "流": 425,
      "淇": 426,
      "湖": 427,
      "漁": 428,
      "演": 429,
      "濡": 430,
      "火": 431,
      "無": 432,
      "熱": 433,
      "父": 434,
      "特": 435,
      "猶": 436,
      "王": 437,
      "現": 438,
      "生": 439,
      "用": 440,
      "田": 441,
      "甲": 442,
      "申": 443,
      "男": 444,
      "画": 445,
      "異": 446,
      "畵": 447,
      "白": 448,
      "的": 449,
      "皿": 450,
      "益": 451,
      "目": 452,
      "直": 453,
      "看": 454,
      "眞": 455,
      "眠": 456,
      "祖": 457,
      "神": 458,
      "禪": 459,
      "秀": 460,
      "私": 461,
      "立": 462,
      "笑": 463,
      "糞": 464,
      "紅": 465,
      "紙": 466,
      "終": 467,
      "結": 468,
      "緣": 469,
      "罪": 470,
      "美": 471,
      "義": 472,
      "者": 473,
      "腸": 474,
      "自": 475,
      "臭": 476,
      "舒": 477,
      "船": 478,
      "色": 479,
      "苦": 480,
      "英": 481,
      "萬": 482,
      "落": 483,
      "葉": 484,
      "蒼": 485,
      "藝": 486,
      "蛇": 487,
      "蜀": 488,
      "蟲": 489,
      "街": 490,
      "衛": 491,
      "要": 492,
      "見": 493,
      "觸": 494,
      "言": 495,
      "記": 496,
      "話": 497,
      "論": 498,
      "謝": 499,
      "讐": 500,
      "車": 501,
      "過": 502,
      "道": 503,
      "遠": 504,
      "部": 505,
      "都": 506,
      "里": 507,
      "野": 508,
      "針": 509,
      "鈴": 510,
      "鋒": 511,
      "錢": 512,
      "間": 513,
      "集": 514,
      "離": 515,
      "難": 516,
      "電": 517,
      "霆": 518,
      "非": 519,
      "面": 520,
      "韓": 521,
      "頑": 522,
      "頭": 523,
      "飛": 524,
      "香": 525,
      "驛": 526,
      "高": 527,
      "가": 528,
      "각": 529,
      "갂": 530,
      "간": 531,
      "갇": 532,
      "갈": 533,
      "갉": 534,
      "감": 535,
      "갑": 536,
      "값": 537,
      "갓": 538,
      "갔": 539,
      "강": 540,
      "갖": 541,
      "갗": 542,
      "갘": 543,
      "같": 544,
      "갚": 545,
      "갛": 546,
      "개": 547,
      "객": 548,
      "갠": 549,
      "갤": 550,
      "갬": 551,
      "갭": 552,
      "갮": 553,
      "갯": 554,
      "갰": 555,
      "갱": 556,
      "갵": 557,
      "갸": 558,
      "갹": 559,
      "걀": 560,
      "걈": 561,
      "걍": 562,
      "걑": 563,
      "걔": 564,
      "걘": 565,
      "거": 566,
      "걱": 567,
      "건": 568,
      "걷": 569,
      "걸": 570,
      "검": 571,
      "겁": 572,
      "겂": 573,
      "것": 574,
      "겄": 575,
      "겅": 576,
      "겈": 577,
      "겉": 578,
      "겋": 579,
      "게": 580,
      "겍": 581,
      "겐": 582,
      "겓": 583,
      "겔": 584,
      "겜": 585,
      "겝": 586,
      "겟": 587,
      "겠": 588,
      "겡": 589,
      "겧": 590,
      "겨": 591,
      "격": 592,
      "겪": 593,
      "견": 594,
      "결": 595,
      "겸": 596,
      "겹": 597,
      "겻": 598,
      "겼": 599,
      "경": 600,
      "곀": 601,
      "곁": 602,
      "곃": 603,
      "계": 604,
      "곅": 605,
      "곗": 606,
      "곘": 607,
      "고": 608,
      "곡": 609,
      "곤": 610,
      "곧": 611,
      "골": 612,
      "곪": 613,
      "곰": 614,
      "곱": 615,
      "곳": 616,
      "공": 617,
      "곶": 618,
      "곷": 619,
      "곸": 620,
      "곻": 621,
      "과": 622,
      "곽": 623,
      "관": 624,
      "괄": 625,
      "광": 626,
      "괘": 627,
      "괜": 628,
      "괞": 629,
      "괨": 630,
      "괭": 631,
      "괴": 632,
      "괸": 633,
      "괺": 634,
      "굉": 635,
      "교": 636,
      "굣": 637,
      "구": 638,
      "국": 639,
      "굯": 640,
      "군": 641,
      "굳": 642,
      "굴": 643,
      "굵": 644,
      "굶": 645,
      "굷": 646,
      "굼": 647,
      "굽": 648,
      "굿": 649,
      "궁": 650,
      "궂": 651,
      "궄": 652,
      "궅": 653,
      "궈": 654,
      "권": 655,
      "궐": 656,
      "궛": 657,
      "궜": 658,
      "궤": 659,
      "귀": 660,
      "귄": 661,
      "귓": 662,
      "귘": 663,
      "규": 664,
      "귝": 665,
      "균": 666,
      "귤": 667,
      "귬": 668,
      "귯": 669,
      "귱": 670,
      "그": 671,
      "극": 672,
      "귻": 673,
      "근": 674,
      "귿": 675,
      "글": 676,
      "긁": 677,
      "금": 678,
      "급": 679,
      "긋": 680,
      "긌": 681,
      "긍": 682,
      "긑": 683,
      "긔": 684,
      "긛": 685,
      "기": 686,
      "긱": 687,
      "긴": 688,
      "긷": 689,
      "길": 690,
      "김": 691,
      "깁": 692,
      "깃": 693,
      "깄": 694,
      "깅": 695,
      "깇": 696,
      "깈": 697,
      "깉": 698,
      "깊": 699,
      "까": 700,
      "깍": 701,
      "깎": 702,
      "깐": 703,
      "깔": 704,
      "깜": 705,
      "깝": 706,
      "깞": 707,
      "깟": 708,
      "깠": 709,
      "깡": 710,
      "깤": 711,
      "깥": 712,
      "깨": 713,
      "깩": 714,
      "깽": 715,
      "꺄": 716,
      "꺅": 717,
      "꺆": 718,
      "꺇": 719,
      "꺍": 720,
      "꺙": 721,
      "꺜": 722,
      "꺠": 723,
      "꺤": 724,
      "꺴": 725,
      "꺼": 726,
      "꺽": 727,
      "꺾": 728,
      "껀": 729,
      "껄": 730,
      "껌": 731,
      "껍": 732,
      "껏": 733,
      "껑": 734,
      "껒": 735,
      "께": 736,
      "껬": 737,
      "껭": 738,
      "껴": 739,
      "꼅": 740,
      "꼇": 741,
      "꼈": 742,
      "꼐": 743,
      "꼬": 744,
      "꼭": 745,
      "꼮": 746,
      "꼰": 747,
      "꼳": 748,
      "꼴": 749,
      "꼼": 750,
      "꼽": 751,
      "꼿": 752,
      "꽁": 753,
      "꽂": 754,
      "꽃": 755,
      "꽄": 756,
      "꽈": 757,
      "꽉": 758,
      "꽝": 759,
      "꽤": 760,
      "꽥": 761,
      "꽦": 762,
      "꽹": 763,
      "꾀": 764,
      "꾜": 765,
      "꾱": 766,
      "꾸": 767,
      "꾹": 768,
      "꾼": 769,
      "꾿": 770,
      "꿀": 771,
      "꿂": 772,
      "꿇": 773,
      "꿈": 774,
      "꿉": 775,
      "꿋": 776,
      "꿍": 777,
      "꿎": 778,
      "꿐": 779,
      "꿑": 780,
      "꿓": 781,
      "꿔": 782,
      "꿘": 783,
      "꿧": 784,
      "꿩": 785,
      "꿰": 786,
      "뀌": 787,
      "뀨": 788,
      "뀩": 789,
      "뀰": 790,
      "뀼": 791,
      "끄": 792,
      "끅": 793,
      "끆": 794,
      "끈": 795,
      "끊": 796,
      "끋": 797,
      "끌": 798,
      "끓": 799,
      "끔": 800,
      "끕": 801,
      "끗": 802,
      "끙": 803,
      "끚": 804,
      "끝": 805,
      "끠": 806,
      "끼": 807,
      "끽": 808,
      "끾": 809,
      "낀": 810,
      "낄": 811,
      "낌": 812,
      "낍": 813,
      "낏": 814,
      "낑": 815,
      "낔": 816,
      "나": 817,
      "낙": 818,
      "낚": 819,
      "낛": 820,
      "난": 821,
      "낞": 822,
      "낟": 823,
      "날": 824,
      "낡": 825,
      "남": 826,
      "납": 827,
      "낫": 828,
      "났": 829,
      "낭": 830,
      "낮": 831,
      "낯": 832,
      "낰": 833,
      "낱": 834,
      "낲": 835,
      "낳": 836,
      "내": 837,
      "낸": 838,
      "낼": 839,
      "냄": 840,
      "냅": 841,
      "냇": 842,
      "냈": 843,
      "냉": 844,
      "냊": 845,
      "냌": 846,
      "냐": 847,
      "냑": 848,
      "냔": 849,
      "냘": 850,
      "냠": 851,
      "냥": 852,
      "냨": 853,
      "냬": 854,
      "넀": 855,
      "너": 856,
      "넉": 857,
      "넋": 858,
      "넌": 859,
      "널": 860,
      "넑": 861,
      "넒": 862,
      "넓": 863,
      "넖": 864,
      "넗": 865,
      "넘": 866,
      "넙": 867,
      "넛": 868,
      "넜": 869,
      "넝": 870,
      "넢": 871,
      "넣": 872,
      "네": 873,
      "넥": 874,
      "넨": 875,
      "넫": 876,
      "넬": 877,
      "넴": 878,
      "넵": 879,
      "넷": 880,
      "넸": 881,
      "넹": 882,
      "넼": 883,
      "녀": 884,
      "녁": 885,
      "년": 886,
      "념": 887,
      "녓": 888,
      "녔": 889,
      "녕": 890,
      "녘": 891,
      "녜": 892,
      "노": 893,
      "녹": 894,
      "논": 895,
      "녿": 896,
      "놀": 897,
      "놃": 898,
      "놈": 899,
      "놉": 900,
      "놋": 901,
      "농": 902,
      "놑": 903,
      "높": 904,
      "놓": 905,
      "놔": 906,
      "놕": 907,
      "놘": 908,
      "놜": 909,
      "놧": 910,
      "놨": 911,
      "놬": 912,
      "놰": 913,
      "뇌": 914,
      "뇨": 915,
      "뇬": 916,
      "뇰": 917,
      "뇽": 918,
      "뇾": 919,
      "누": 920,
      "눅": 921,
      "눈": 922,
      "눊": 923,
      "눌": 924,
      "눔": 925,
      "눕": 926,
      "눙": 927,
      "눼": 928,
      "뉘": 929,
      "뉴": 930,
      "늄": 931,
      "늉": 932,
      "느": 933,
      "늑": 934,
      "는": 935,
      "늗": 936,
      "늘": 937,
      "늙": 938,
      "늠": 939,
      "늡": 940,
      "늣": 941,
      "능": 942,
      "늦": 943,
      "늨": 944,
      "늪": 945,
      "늬": 946,
      "늰": 947,
      "늴": 948,
      "닁": 949,
      "니": 950,
      "닉": 951,
      "닊": 952,
      "닌": 953,
      "닏": 954,
      "닐": 955,
      "님": 956,
      "닙": 957,
      "닛": 958,
      "닝": 959,
      "닟": 960,
      "닠": 961,
      "다": 962,
      "닥": 963,
      "닦": 964,
      "단": 965,
      "닫": 966,
      "달": 967,
      "닭": 968,
      "닮": 969,
      "닯": 970,
      "닳": 971,
      "담": 972,
      "답": 973,
      "닶": 974,
      "닷": 975,
      "당": 976,
      "닺": 977,
      "닻": 978,
      "닼": 979,
      "닽": 980,
      "닿": 981,
      "대": 982,
      "댁": 983,
      "댄": 984,
      "댇": 985,
      "댈": 986,
      "댐": 987,
      "댑": 988,
      "댓": 989,
      "댕": 990,
      "댖": 991,
      "댜": 992,
      "댝": 993,
      "댠": 994,
      "댣": 995,
      "댬": 996,
      "댰": 997,
      "댸": 998,
      "더": 999,
      "덕": 1000,
      "던": 1001,
      "덛": 1002,
      "덜": 1003,
      "덟": 1004,
      "덤": 1005,
      "덥": 1006,
      "덧": 1007,
      "덨": 1008,
      "덩": 1009,
      "덫": 1010,
      "덮": 1011,
      "덯": 1012,
      "데": 1013,
      "덱": 1014,
      "덴": 1015,
      "덷": 1016,
      "델": 1017,
      "뎀": 1018,
      "뎁": 1019,
      "뎃": 1020,
      "뎅": 1021,
      "뎈": 1022,
      "뎌": 1023,
      "뎍": 1024,
      "뎐": 1025,
      "뎜": 1026,
      "뎟": 1027,
      "뎡": 1028,
      "뎨": 1029,
      "도": 1030,
      "독": 1031,
      "돈": 1032,
      "돋": 1033,
      "돌": 1034,
      "돔": 1035,
      "돕": 1036,
      "돗": 1037,
      "동": 1038,
      "돜": 1039,
      "돟": 1040,
      "돠": 1041,
      "돤": 1042,
      "돱": 1043,
      "돵": 1044,
      "돼": 1045,
      "됀": 1046,
      "됄": 1047,
      "됌": 1048,
      "됏": 1049,
      "됐": 1050,
      "되": 1051,
      "된": 1052,
      "될": 1053,
      "됨": 1054,
      "됩": 1055,
      "됫": 1056,
      "됭": 1057,
      "됴": 1058,
      "됻": 1059,
      "두": 1060,
      "둑": 1061,
      "둔": 1062,
      "둗": 1063,
      "둘": 1064,
      "둠": 1065,
      "둡": 1066,
      "둣": 1067,
      "둥": 1068,
      "둦": 1069,
      "둬": 1070,
      "둿": 1071,
      "뒀": 1072,
      "뒈": 1073,
      "뒌": 1074,
      "뒤": 1075,
      "뒷": 1076,
      "뒹": 1077,
      "뒺": 1078,
      "듀": 1079,
      "듁": 1080,
      "듕": 1081,
      "드": 1082,
      "득": 1083,
      "든": 1084,
      "듣": 1085,
      "들": 1086,
      "듦": 1087,
      "듧": 1088,
      "듨": 1089,
      "듬": 1090,
      "듭": 1091,
      "듯": 1092,
      "등": 1093,
      "듲": 1094,
      "듴": 1095,
      "듵": 1096,
      "듷": 1097,
      "듸": 1098,
      "딍": 1099,
      "디": 1100,
      "딕": 1101,
      "딘": 1102,
      "딛": 1103,
      "딜": 1104,
      "딤": 1105,
      "딥": 1106,
      "딧": 1107,
      "딨": 1108,
      "딩": 1109,
      "딪": 1110,
      "딫": 1111,
      "딬": 1112,
      "딮": 1113,
      "따": 1114,
      "딱": 1115,
      "딲": 1116,
      "딴": 1117,
      "딷": 1118,
      "딸": 1119,
      "땀": 1120,
      "땁": 1121,
      "땃": 1122,
      "땅": 1123,
      "땈": 1124,
      "땋": 1125,
      "때": 1126,
      "땍": 1127,
      "땐": 1128,
      "땓": 1129,
      "땜": 1130,
      "땟": 1131,
      "땡": 1132,
      "땨": 1133,
      "땸": 1134,
      "떄": 1135,
      "떌": 1136,
      "떔": 1137,
      "떘": 1138,
      "떙": 1139,
      "떠": 1140,
      "떡": 1141,
      "떤": 1142,
      "떨": 1143,
      "떫": 1144,
      "떱": 1145,
      "떳": 1146,
      "떴": 1147,
      "떵": 1148,
      "떻": 1149,
      "떼": 1150,
      "떽": 1151,
      "뗄": 1152,
      "뗑": 1153,
      "뗴": 1154,
      "뗵": 1155,
      "뗼": 1156,
      "또": 1157,
      "똑": 1158,
      "똔": 1159,
      "똗": 1160,
      "똘": 1161,
      "똠": 1162,
      "똥": 1163,
      "똭": 1164,
      "똴": 1165,
      "뙀": 1166,
      "뙁": 1167,
      "뙇": 1168,
      "뚜": 1169,
      "뚝": 1170,
      "뚤": 1171,
      "뚫": 1172,
      "뚬": 1173,
      "뚯": 1174,
      "뚱": 1175,
      "뛰": 1176,
      "뜀": 1177,
      "뜌": 1178,
      "뜍": 1179,
      "뜨": 1180,
      "뜩": 1181,
      "뜬": 1182,
      "뜯": 1183,
      "뜰": 1184,
      "뜷": 1185,
      "뜸": 1186,
      "뜻": 1187,
      "뜽": 1188,
      "띀": 1189,
      "띁": 1190,
      "띄": 1191,
      "띈": 1192,
      "띠": 1193,
      "띡": 1194,
      "띤": 1195,
      "띨": 1196,
      "띰": 1197,
      "띱": 1198,
      "띵": 1199,
      "라": 1200,
      "락": 1201,
      "란": 1202,
      "랃": 1203,
      "랄": 1204,
      "람": 1205,
      "랍": 1206,
      "랏": 1207,
      "랐": 1208,
      "랑": 1209,
      "랒": 1210,
      "랔": 1211,
      "랖": 1212,
      "랗": 1213,
      "래": 1214,
      "랙": 1215,
      "랜": 1216,
      "랠": 1217,
      "램": 1218,
      "랩": 1219,
      "랫": 1220,
      "랬": 1221,
      "랭": 1222,
      "랰": 1223,
      "랴": 1224,
      "략": 1225,
      "랽": 1226,
      "럈": 1227,
      "량": 1228,
      "럐": 1229,
      "럔": 1230,
      "럤": 1231,
      "러": 1232,
      "럭": 1233,
      "런": 1234,
      "럴": 1235,
      "럼": 1236,
      "럽": 1237,
      "럾": 1238,
      "럿": 1239,
      "렀": 1240,
      "렁": 1241,
      "렄": 1242,
      "렇": 1243,
      "레": 1244,
      "렉": 1245,
      "렌": 1246,
      "렐": 1247,
      "렘": 1248,
      "렙": 1249,
      "렛": 1250,
      "렜": 1251,
      "렝": 1252,
      "렠": 1253,
      "려": 1254,
      "력": 1255,
      "련": 1256,
      "렬": 1257,
      "렴": 1258,
      "렵": 1259,
      "렷": 1260,
      "렸": 1261,
      "령": 1262,
      "렿": 1263,
      "례": 1264,
      "롁": 1265,
      "롄": 1266,
      "로": 1267,
      "록": 1268,
      "론": 1269,
      "롤": 1270,
      "롬": 1271,
      "롭": 1272,
      "롯": 1273,
      "롱": 1274,
      "롷": 1275,
      "롸": 1276,
      "롹": 1277,
      "뢀": 1278,
      "뢈": 1279,
      "뢉": 1280,
      "뢍": 1281,
      "뢔": 1282,
      "뢰": 1283,
      "뢱": 1284,
      "료": 1285,
      "룔": 1286,
      "룕": 1287,
      "룡": 1288,
      "루": 1289,
      "룩": 1290,
      "룬": 1291,
      "룯": 1292,
      "룰": 1293,
      "룸": 1294,
      "룹": 1295,
      "룻": 1296,
      "룽": 1297,
      "뤄": 1298,
      "뤌": 1299,
      "뤠": 1300,
      "뤡": 1301,
      "뤰": 1302,
      "뤼": 1303,
      "뤽": 1304,
      "륄": 1305,
      "륒": 1306,
      "류": 1307,
      "륙": 1308,
      "륜": 1309,
      "률": 1310,
      "륨": 1311,
      "륫": 1312,
      "륭": 1313,
      "륰": 1314,
      "르": 1315,
      "륵": 1316,
      "른": 1317,
      "륺": 1318,
      "를": 1319,
      "름": 1320,
      "릅": 1321,
      "릇": 1322,
      "릉": 1323,
      "릋": 1324,
      "릌": 1325,
      "릎": 1326,
      "릏": 1327,
      "릐": 1328,
      "릣": 1329,
      "리": 1330,
      "릭": 1331,
      "린": 1332,
      "릳": 1333,
      "릴": 1334,
      "림": 1335,
      "립": 1336,
      "릿": 1337,
      "맀": 1338,
      "링": 1339,
      "맂": 1340,
      "맄": 1341,
      "맆": 1342,
      "마": 1343,
      "막": 1344,
      "만": 1345,
      "맍": 1346,
      "많": 1347,
      "맏": 1348,
      "말": 1349,
      "맑": 1350,
      "맒": 1351,
      "맖": 1352,
      "맗": 1353,
      "맘": 1354,
      "맙": 1355,
      "맛": 1356,
      "맜": 1357,
      "망": 1358,
      "맞": 1359,
      "맟": 1360,
      "맠": 1361,
      "맡": 1362,
      "맣": 1363,
      "매": 1364,
      "맥": 1365,
      "맨": 1366,
      "맬": 1367,
      "맴": 1368,
      "맵": 1369,
      "맷": 1370,
      "맹": 1371,
      "맺": 1372,
      "맻": 1373,
      "먀": 1374,
      "먄": 1375,
      "먈": 1376,
      "먕": 1377,
      "먠": 1378,
      "머": 1379,
      "먹": 1380,
      "먼": 1381,
      "먾": 1382,
      "멀": 1383,
      "멈": 1384,
      "멋": 1385,
      "멌": 1386,
      "멍": 1387,
      "멎": 1388,
      "멐": 1389,
      "멓": 1390,
      "메": 1391,
      "멕": 1392,
      "멘": 1393,
      "멜": 1394,
      "멤": 1395,
      "멧": 1396,
      "멩": 1397,
      "멬": 1398,
      "며": 1399,
      "멱": 1400,
      "면": 1401,
      "멸": 1402,
      "몀": 1403,
      "몃": 1404,
      "몄": 1405,
      "명": 1406,
      "몆": 1407,
      "몇": 1408,
      "모": 1409,
      "목": 1410,
      "몫": 1411,
      "몬": 1412,
      "몰": 1413,
      "몸": 1414,
      "몹": 1415,
      "못": 1416,
      "몽": 1417,
      "몾": 1418,
      "뫀": 1419,
      "뫁": 1420,
      "뫃": 1421,
      "뫄": 1422,
      "뫙": 1423,
      "뫼": 1424,
      "묘": 1425,
      "묠": 1426,
      "묨": 1427,
      "묭": 1428,
      "무": 1429,
      "묵": 1430,
      "묶": 1431,
      "문": 1432,
      "묻": 1433,
      "물": 1434,
      "묽": 1435,
      "뭄": 1436,
      "뭇": 1437,
      "뭉": 1438,
      "뭍": 1439,
      "뭏": 1440,
      "뭐": 1441,
      "뭔": 1442,
      "뭘": 1443,
      "뭣": 1444,
      "뭥": 1445,
      "뭨": 1446,
      "뭬": 1447,
      "뮁": 1448,
      "뮈": 1449,
      "뮌": 1450,
      "뮐": 1451,
      "뮝": 1452,
      "뮤": 1453,
      "뮨": 1454,
      "뮬": 1455,
      "므": 1456,
      "믄": 1457,
      "믈": 1458,
      "믐": 1459,
      "믓": 1460,
      "믕": 1461,
      "믜": 1462,
      "미": 1463,
      "믹": 1464,
      "믺": 1465,
      "민": 1466,
      "믿": 1467,
      "밀": 1468,
      "밈": 1469,
      "밉": 1470,
      "밋": 1471,
      "밌": 1472,
      "밍": 1473,
      "밎": 1474,
      "및": 1475,
      "밐": 1476,
      "밑": 1477,
      "밓": 1478,
      "바": 1479,
      "박": 1480,
      "밖": 1481,
      "반": 1482,
      "받": 1483,
      "발": 1484,
      "밝": 1485,
      "밞": 1486,
      "밟": 1487,
      "밣": 1488,
      "밤": 1489,
      "밥": 1490,
      "밧": 1491,
      "밨": 1492,
      "방": 1493,
      "밫": 1494,
      "밬": 1495,
      "밭": 1496,
      "배": 1497,
      "백": 1498,
      "밴": 1499,
      "밷": 1500,
      "밸": 1501,
      "뱀": 1502,
      "뱁": 1503,
      "뱃": 1504,
      "뱅": 1505,
      "뱆": 1506,
      "뱉": 1507,
      "뱌": 1508,
      "뱍": 1509,
      "뱎": 1510,
      "뱐": 1511,
      "뱔": 1512,
      "버": 1513,
      "벅": 1514,
      "번": 1515,
      "벋": 1516,
      "벌": 1517,
      "범": 1518,
      "법": 1519,
      "벗": 1520,
      "벙": 1521,
      "벚": 1522,
      "벝": 1523,
      "베": 1524,
      "벡": 1525,
      "벤": 1526,
      "벨": 1527,
      "벰": 1528,
      "벳": 1529,
      "벵": 1530,
      "벸": 1531,
      "벹": 1532,
      "벼": 1533,
      "벽": 1534,
      "변": 1535,
      "별": 1536,
      "볌": 1537,
      "볍": 1538,
      "병": 1539,
      "볓": 1540,
      "볔": 1541,
      "볕": 1542,
      "볠": 1543,
      "보": 1544,
      "복": 1545,
      "볶": 1546,
      "본": 1547,
      "볹": 1548,
      "볻": 1549,
      "볼": 1550,
      "볽": 1551,
      "봄": 1552,
      "봅": 1553,
      "봇": 1554,
      "봈": 1555,
      "봉": 1556,
      "봊": 1557,
      "봏": 1558,
      "봐": 1559,
      "봑": 1560,
      "봗": 1561,
      "봘": 1562,
      "봙": 1563,
      "봣": 1564,
      "봤": 1565,
      "봨": 1566,
      "봫": 1567,
      "봬": 1568,
      "봭": 1569,
      "봵": 1570,
      "뵈": 1571,
      "뵙": 1572,
      "뵛": 1573,
      "뵜": 1574,
      "뵤": 1575,
      "뵨": 1576,
      "뵹": 1577,
      "부": 1578,
      "북": 1579,
      "분": 1580,
      "붅": 1581,
      "붆": 1582,
      "붇": 1583,
      "불": 1584,
      "붉": 1585,
      "붐": 1586,
      "붓": 1587,
      "붕": 1588,
      "붙": 1589,
      "붜": 1590,
      "붤": 1591,
      "붸": 1592,
      "붹": 1593,
      "뷁": 1594,
      "뷃": 1595,
      "뷐": 1596,
      "뷔": 1597,
      "뷰": 1598,
      "뷴": 1599,
      "뷸": 1600,
      "븅": 1601,
      "브": 1602,
      "븍": 1603,
      "븐": 1604,
      "블": 1605,
      "븟": 1606,
      "븡": 1607,
      "븨": 1608,
      "븬": 1609,
      "빂": 1610,
      "비": 1611,
      "빅": 1612,
      "빈": 1613,
      "빋": 1614,
      "빌": 1615,
      "빔": 1616,
      "빕": 1617,
      "빗": 1618,
      "빙": 1619,
      "빚": 1620,
      "빛": 1621,
      "빝": 1622,
      "빠": 1623,
      "빡": 1624,
      "빢": 1625,
      "빤": 1626,
      "빨": 1627,
      "빰": 1628,
      "빱": 1629,
      "빳": 1630,
      "빵": 1631,
      "빻": 1632,
      "빼": 1633,
      "빽": 1634,
      "뺀": 1635,
      "뺄": 1636,
      "뺏": 1637,
      "뺐": 1638,
      "뺑": 1639,
      "뺒": 1640,
      "뺘": 1641,
      "뺠": 1642,
      "뺨": 1643,
      "뺴": 1644,
      "뺵": 1645,
      "뻈": 1646,
      "뻉": 1647,
      "뻐": 1648,
      "뻑": 1649,
      "뻔": 1650,
      "뻗": 1651,
      "뻘": 1652,
      "뻡": 1653,
      "뻣": 1654,
      "뻤": 1655,
      "뻥": 1656,
      "뻬": 1657,
      "뻭": 1658,
      "뻴": 1659,
      "뼈": 1660,
      "뼉": 1661,
      "뼘": 1662,
      "뼛": 1663,
      "뽀": 1664,
      "뽁": 1665,
      "뽄": 1666,
      "뽈": 1667,
      "뽐": 1668,
      "뽑": 1669,
      "뽕": 1670,
      "뽜": 1671,
      "뽠": 1672,
      "뽯": 1673,
      "뽱": 1674,
      "뾰": 1675,
      "뿅": 1676,
      "뿌": 1677,
      "뿍": 1678,
      "뿐": 1679,
      "뿔": 1680,
      "뿜": 1681,
      "뿟": 1682,
      "뿡": 1683,
      "뿨": 1684,
      "뿩": 1685,
      "뿰": 1686,
      "쀍": 1687,
      "쀠": 1688,
      "쀨": 1689,
      "쀼": 1690,
      "쁀": 1691,
      "쁘": 1692,
      "쁜": 1693,
      "쁠": 1694,
      "쁨": 1695,
      "쁩": 1696,
      "삐": 1697,
      "삑": 1698,
      "삔": 1699,
      "삘": 1700,
      "삤": 1701,
      "삥": 1702,
      "사": 1703,
      "삭": 1704,
      "산": 1705,
      "살": 1706,
      "삵": 1707,
      "삶": 1708,
      "삷": 1709,
      "삻": 1710,
      "삼": 1711,
      "삽": 1712,
      "삿": 1713,
      "샀": 1714,
      "상": 1715,
      "샅": 1716,
      "샆": 1717,
      "새": 1718,
      "색": 1719,
      "샊": 1720,
      "샌": 1721,
      "샐": 1722,
      "샘": 1723,
      "샙": 1724,
      "샛": 1725,
      "생": 1726,
      "샠": 1727,
      "샡": 1728,
      "샣": 1729,
      "샤": 1730,
      "샥": 1731,
      "샨": 1732,
      "샬": 1733,
      "샴": 1734,
      "샵": 1735,
      "샷": 1736,
      "샹": 1737,
      "샼": 1738,
      "샾": 1739,
      "섀": 1740,
      "섁": 1741,
      "서": 1742,
      "석": 1743,
      "섞": 1744,
      "선": 1745,
      "섣": 1746,
      "설": 1747,
      "섥": 1748,
      "섫": 1749,
      "섬": 1750,
      "섭": 1751,
      "섯": 1752,
      "성": 1753,
      "섲": 1754,
      "섳": 1755,
      "섵": 1756,
      "섶": 1757,
      "세": 1758,
      "섹": 1759,
      "섺": 1760,
      "섻": 1761,
      "센": 1762,
      "섿": 1763,
      "셀": 1764,
      "셈": 1765,
      "셉": 1766,
      "셋": 1767,
      "셍": 1768,
      "셐": 1769,
      "셑": 1770,
      "셔": 1771,
      "셕": 1772,
      "션": 1773,
      "셜": 1774,
      "셤": 1775,
      "셥": 1776,
      "셧": 1777,
      "셨": 1778,
      "셩": 1779,
      "셰": 1780,
      "셴": 1781,
      "셸": 1782,
      "솀": 1783,
      "소": 1784,
      "속": 1785,
      "솎": 1786,
      "손": 1787,
      "솓": 1788,
      "솔": 1789,
      "솜": 1790,
      "솝": 1791,
      "솟": 1792,
      "송": 1793,
      "솢": 1794,
      "솤": 1795,
      "솥": 1796,
      "솧": 1797,
      "솨": 1798,
      "솰": 1799,
      "쇄": 1800,
      "쇅": 1801,
      "쇠": 1802,
      "쇳": 1803,
      "쇼": 1804,
      "숀": 1805,
      "숄": 1806,
      "숍": 1807,
      "숏": 1808,
      "숑": 1809,
      "숖": 1810,
      "수": 1811,
      "숙": 1812,
      "순": 1813,
      "숟": 1814,
      "술": 1815,
      "숨": 1816,
      "숩": 1817,
      "숫": 1818,
      "숭": 1819,
      "숯": 1820,
      "숰": 1821,
      "숱": 1822,
      "숲": 1823,
      "숴": 1824,
      "숼": 1825,
      "쉅": 1826,
      "쉐": 1827,
      "쉑": 1828,
      "쉒": 1829,
      "쉔": 1830,
      "쉘": 1831,
      "쉡": 1832,
      "쉣": 1833,
      "쉥": 1834,
      "쉩": 1835,
      "쉬": 1836,
      "쉭": 1837,
      "쉰": 1838,
      "쉴": 1839,
      "쉼": 1840,
      "쉽": 1841,
      "쉿": 1842,
      "슁": 1843,
      "슈": 1844,
      "슉": 1845,
      "슌": 1846,
      "슐": 1847,
      "슘": 1848,
      "슛": 1849,
      "슝": 1850,
      "슠": 1851,
      "스": 1852,
      "슥": 1853,
      "슨": 1854,
      "슫": 1855,
      "슬": 1856,
      "슭": 1857,
      "슲": 1858,
      "슴": 1859,
      "습": 1860,
      "슷": 1861,
      "승": 1862,
      "슺": 1863,
      "슼": 1864,
      "슽": 1865,
      "슾": 1866,
      "싀": 1867,
      "싄": 1868,
      "싐": 1869,
      "싑": 1870,
      "싖": 1871,
      "시": 1872,
      "식": 1873,
      "신": 1874,
      "싡": 1875,
      "싢": 1876,
      "싣": 1877,
      "실": 1878,
      "싫": 1879,
      "심": 1880,
      "십": 1881,
      "싯": 1882,
      "싰": 1883,
      "싱": 1884,
      "싲": 1885,
      "싴": 1886,
      "싶": 1887,
      "싷": 1888,
      "싸": 1889,
      "싹": 1890,
      "싼": 1891,
      "쌀": 1892,
      "쌂": 1893,
      "쌈": 1894,
      "쌉": 1895,
      "쌍": 1896,
      "쌓": 1897,
      "쌔": 1898,
      "쌕": 1899,
      "쌘": 1900,
      "쌤": 1901,
      "쌩": 1902,
      "쌰": 1903,
      "썀": 1904,
      "썁": 1905,
      "썅": 1906,
      "썌": 1907,
      "썜": 1908,
      "썡": 1909,
      "써": 1910,
      "썩": 1911,
      "썪": 1912,
      "썬": 1913,
      "썰": 1914,
      "썱": 1915,
      "썸": 1916,
      "썹": 1917,
      "썻": 1918,
      "썼": 1919,
      "썽": 1920,
      "쎀": 1921,
      "쎄": 1922,
      "쎅": 1923,
      "쎈": 1924,
      "쎌": 1925,
      "쎔": 1926,
      "쎗": 1927,
      "쎘": 1928,
      "쎠": 1929,
      "쎤": 1930,
      "쎴": 1931,
      "쎼": 1932,
      "쎾": 1933,
      "쏔": 1934,
      "쏘": 1935,
      "쏙": 1936,
      "쏜": 1937,
      "쏟": 1938,
      "쏠": 1939,
      "쏨": 1940,
      "쏩": 1941,
      "쏫": 1942,
      "쏭": 1943,
      "쏱": 1944,
      "쏴": 1945,
      "쐈": 1946,
      "쐉": 1947,
      "쐐": 1948,
      "쐬": 1949,
      "쑈": 1950,
      "쑝": 1951,
      "쑤": 1952,
      "쑥": 1953,
      "쑨": 1954,
      "쑬": 1955,
      "쑴": 1956,
      "쑹": 1957,
      "쒕": 1958,
      "쒜": 1959,
      "쒯": 1960,
      "쒰": 1961,
      "쒸": 1962,
      "쓉": 1963,
      "쓔": 1964,
      "쓕": 1965,
      "쓰": 1966,
      "쓱": 1967,
      "쓴": 1968,
      "쓸": 1969,
      "쓹": 1970,
      "씀": 1971,
      "씁": 1972,
      "씅": 1973,
      "씌": 1974,
      "씐": 1975,
      "씝": 1976,
      "씨": 1977,
      "씩": 1978,
      "씪": 1979,
      "씬": 1980,
      "씰": 1981,
      "씸": 1982,
      "씹": 1983,
      "씻": 1984,
      "씼": 1985,
      "씽": 1986,
      "앀": 1987,
      "앁": 1988,
      "아": 1989,
      "악": 1990,
      "안": 1991,
      "앉": 1992,
      "않": 1993,
      "앋": 1994,
      "알": 1995,
      "앍": 1996,
      "앎": 1997,
      "앓": 1998,
      "암": 1999,
      "압": 2000,
      "앖": 2001,
      "앗": 2002,
      "았": 2003,
      "앙": 2004,
      "앚": 2005,
      "앜": 2006,
      "앞": 2007,
      "앟": 2008,
      "애": 2009,
      "액": 2010,
      "앤": 2011,
      "앨": 2012,
      "앰": 2013,
      "앱": 2014,
      "앳": 2015,
      "앵": 2016,
      "앸": 2017,
      "야": 2018,
      "약": 2019,
      "얀": 2020,
      "얄": 2021,
      "얇": 2022,
      "얌": 2023,
      "얍": 2024,
      "얏": 2025,
      "얐": 2026,
      "양": 2027,
      "얔": 2028,
      "얕": 2029,
      "얗": 2030,
      "얘": 2031,
      "얙": 2032,
      "어": 2033,
      "억": 2034,
      "얶": 2035,
      "얷": 2036,
      "언": 2037,
      "얹": 2038,
      "얺": 2039,
      "얻": 2040,
      "얼": 2041,
      "얽": 2042,
      "엃": 2043,
      "엄": 2044,
      "업": 2045,
      "없": 2046,
      "엇": 2047,
      "었": 2048,
      "엉": 2049,
      "엊": 2050,
      "엋": 2051,
      "엌": 2052,
      "엎": 2053,
      "엏": 2054,
      "에": 2055,
      "엑": 2056,
      "엓": 2057,
      "엔": 2058,
      "엘": 2059,
      "엠": 2060,
      "엡": 2061,
      "엢": 2062,
      "엣": 2063,
      "엤": 2064,
      "엥": 2065,
      "엨": 2066,
      "엪": 2067,
      "여": 2068,
      "역": 2069,
      "엮": 2070,
      "연": 2071,
      "엳": 2072,
      "열": 2073,
      "엷": 2074,
      "염": 2075,
      "엽": 2076,
      "엾": 2077,
      "엿": 2078,
      "였": 2079,
      "영": 2080,
      "옂": 2081,
      "옄": 2082,
      "옅": 2083,
      "옆": 2084,
      "옇": 2085,
      "예": 2086,
      "옌": 2087,
      "옐": 2088,
      "옘": 2089,
      "옙": 2090,
      "옛": 2091,
      "옜": 2092,
      "오": 2093,
      "옥": 2094,
      "온": 2095,
      "올": 2096,
      "옭": 2097,
      "옮": 2098,
      "옯": 2099,
      "옰": 2100,
      "옳": 2101,
      "옴": 2102,
      "옵": 2103,
      "옶": 2104,
      "옷": 2105,
      "옹": 2106,
      "옼": 2107,
      "옾": 2108,
      "옿": 2109,
      "와": 2110,
      "왁": 2111,
      "왃": 2112,
      "완": 2113,
      "왅": 2114,
      "왈": 2115,
      "왑": 2116,
      "왓": 2117,
      "왔": 2118,
      "왕": 2119,
      "왘": 2120,
      "왛": 2121,
      "왜": 2122,
      "왝": 2123,
      "왠": 2124,
      "왤": 2125,
      "왦": 2126,
      "외": 2127,
      "왹": 2128,
      "왼": 2129,
      "욀": 2130,
      "욌": 2131,
      "요": 2132,
      "욕": 2133,
      "욘": 2134,
      "욜": 2135,
      "욤": 2136,
      "욥": 2137,
      "욧": 2138,
      "용": 2139,
      "욬": 2140,
      "욯": 2141,
      "우": 2142,
      "욱": 2143,
      "욲": 2144,
      "운": 2145,
      "욷": 2146,
      "울": 2147,
      "욹": 2148,
      "움": 2149,
      "웁": 2150,
      "웃": 2151,
      "웄": 2152,
      "웅": 2153,
      "웈": 2154,
      "워": 2155,
      "웍": 2156,
      "원": 2157,
      "월": 2158,
      "웜": 2159,
      "웟": 2160,
      "웠": 2161,
      "웡": 2162,
      "웤": 2163,
      "웨": 2164,
      "웩": 2165,
      "웬": 2166,
      "웰": 2167,
      "웸": 2168,
      "웹": 2169,
      "웽": 2170,
      "윀": 2171,
      "위": 2172,
      "윅": 2173,
      "윈": 2174,
      "윌": 2175,
      "윔": 2176,
      "윕": 2177,
      "윖": 2178,
      "윗": 2179,
      "윘": 2180,
      "윙": 2181,
      "유": 2182,
      "육": 2183,
      "윤": 2184,
      "율": 2185,
      "윰": 2186,
      "윱": 2187,
      "윳": 2188,
      "융": 2189,
      "으": 2190,
      "윽": 2191,
      "은": 2192,
      "읃": 2193,
      "을": 2194,
      "읅": 2195,
      "읆": 2196,
      "읇": 2197,
      "읊": 2198,
      "음": 2199,
      "읍": 2200,
      "읎": 2201,
      "읏": 2202,
      "응": 2203,
      "읔": 2204,
      "읖": 2205,
      "의": 2206,
      "읭": 2207,
      "읮": 2208,
      "이": 2209,
      "익": 2210,
      "읶": 2211,
      "인": 2212,
      "읹": 2213,
      "읺": 2214,
      "읻": 2215,
      "일": 2216,
      "읽": 2217,
      "읿": 2218,
      "잃": 2219,
      "임": 2220,
      "입": 2221,
      "잇": 2222,
      "있": 2223,
      "잉": 2224,
      "잊": 2225,
      "잌": 2226,
      "잎": 2227,
      "잏": 2228,
      "자": 2229,
      "작": 2230,
      "잔": 2231,
      "잖": 2232,
      "잗": 2233,
      "잘": 2234,
      "잛": 2235,
      "잠": 2236,
      "잡": 2237,
      "잣": 2238,
      "잤": 2239,
      "장": 2240,
      "잦": 2241,
      "잫": 2242,
      "재": 2243,
      "잭": 2244,
      "잰": 2245,
      "잴": 2246,
      "잼": 2247,
      "잽": 2248,
      "잿": 2249,
      "쟀": 2250,
      "쟁": 2251,
      "쟄": 2252,
      "쟈": 2253,
      "쟉": 2254,
      "쟌": 2255,
      "쟎": 2256,
      "쟘": 2257,
      "쟙": 2258,
      "쟝": 2259,
      "쟞": 2260,
      "쟤": 2261,
      "쟾": 2262,
      "저": 2263,
      "적": 2264,
      "전": 2265,
      "젅": 2266,
      "젆": 2267,
      "젇": 2268,
      "절": 2269,
      "젊": 2270,
      "젋": 2271,
      "점": 2272,
      "접": 2273,
      "젓": 2274,
      "젔": 2275,
      "정": 2276,
      "젖": 2277,
      "젛": 2278,
      "제": 2279,
      "젝": 2280,
      "젠": 2281,
      "젤": 2282,
      "젧": 2283,
      "젬": 2284,
      "젭": 2285,
      "젯": 2286,
      "져": 2287,
      "젹": 2288,
      "젼": 2289,
      "졀": 2290,
      "졈": 2291,
      "졉": 2292,
      "졋": 2293,
      "졌": 2294,
      "졍": 2295,
      "졎": 2296,
      "졏": 2297,
      "졐": 2298,
      "졑": 2299,
      "졓": 2300,
      "졔": 2301,
      "조": 2302,
      "족": 2303,
      "존": 2304,
      "졷": 2305,
      "졸": 2306,
      "좀": 2307,
      "좁": 2308,
      "좃": 2309,
      "종": 2310,
      "좆": 2311,
      "좇": 2312,
      "좉": 2313,
      "좊": 2314,
      "좋": 2315,
      "좌": 2316,
      "좍": 2317,
      "좐": 2318,
      "좔": 2319,
      "좝": 2320,
      "좠": 2321,
      "좡": 2322,
      "좢": 2323,
      "죄": 2324,
      "죈": 2325,
      "죗": 2326,
      "죙": 2327,
      "죠": 2328,
      "죤": 2329,
      "죨": 2330,
      "죳": 2331,
      "죴": 2332,
      "죵": 2333,
      "죶": 2334,
      "죷": 2335,
      "죻": 2336,
      "주": 2337,
      "죽": 2338,
      "준": 2339,
      "줄": 2340,
      "줌": 2341,
      "줍": 2342,
      "줏": 2343,
      "중": 2344,
      "줔": 2345,
      "줗": 2346,
      "줘": 2347,
      "줜": 2348,
      "줠": 2349,
      "줫": 2350,
      "줬": 2351,
      "줮": 2352,
      "줸": 2353,
      "쥇": 2354,
      "쥐": 2355,
      "쥑": 2356,
      "쥔": 2357,
      "쥘": 2358,
      "쥣": 2359,
      "쥤": 2360,
      "쥬": 2361,
      "쥭": 2362,
      "쥰": 2363,
      "쥴": 2364,
      "쥼": 2365,
      "즁": 2366,
      "즈": 2367,
      "즉": 2368,
      "즌": 2369,
      "즐": 2370,
      "즑": 2371,
      "즘": 2372,
      "즙": 2373,
      "즛": 2374,
      "증": 2375,
      "즞": 2376,
      "즤": 2377,
      "지": 2378,
      "직": 2379,
      "짂": 2380,
      "진": 2381,
      "짅": 2382,
      "짇": 2383,
      "질": 2384,
      "짊": 2385,
      "짋": 2386,
      "짐": 2387,
      "집": 2388,
      "짓": 2389,
      "징": 2390,
      "짖": 2391,
      "짘": 2392,
      "짙": 2393,
      "짚": 2394,
      "짛": 2395,
      "짜": 2396,
      "짝": 2397,
      "짞": 2398,
      "짠": 2399,
      "짢": 2400,
      "짤": 2401,
      "짦": 2402,
      "짧": 2403,
      "짫": 2404,
      "짬": 2405,
      "짭": 2406,
      "짱": 2407,
      "짲": 2408,
      "짴": 2409,
      "째": 2410,
      "쨈": 2411,
      "쨉": 2412,
      "쨋": 2413,
      "쨌": 2414,
      "쨍": 2415,
      "쨓": 2416,
      "쨔": 2417,
      "쨘": 2418,
      "쨩": 2419,
      "쨰": 2420,
      "쨱": 2421,
      "쩁": 2422,
      "쩃": 2423,
      "쩄": 2424,
      "쩌": 2425,
      "쩍": 2426,
      "쩐": 2427,
      "쩔": 2428,
      "쩖": 2429,
      "쩜": 2430,
      "쩝": 2431,
      "쩡": 2432,
      "쩧": 2433,
      "쩨": 2434,
      "쪄": 2435,
      "쪈": 2436,
      "쪙": 2437,
      "쪠": 2438,
      "쪼": 2439,
      "쪽": 2440,
      "쪾": 2441,
      "쫀": 2442,
      "쫄": 2443,
      "쫌": 2444,
      "쫏": 2445,
      "쫑": 2446,
      "쫒": 2447,
      "쫓": 2448,
      "쫗": 2449,
      "쫘": 2450,
      "쫙": 2451,
      "쫭": 2452,
      "쬐": 2453,
      "쬬": 2454,
      "쭁": 2455,
      "쭈": 2456,
      "쭉": 2457,
      "쭊": 2458,
      "쭌": 2459,
      "쭐": 2460,
      "쭘": 2461,
      "쭙": 2462,
      "쭛": 2463,
      "쭝": 2464,
      "쮜": 2465,
      "쮯": 2466,
      "쮸": 2467,
      "쯔": 2468,
      "쯗": 2469,
      "쯤": 2470,
      "쯥": 2471,
      "쯧": 2472,
      "쯩": 2473,
      "쯪": 2474,
      "찌": 2475,
      "찍": 2476,
      "찎": 2477,
      "찐": 2478,
      "찔": 2479,
      "찜": 2480,
      "찝": 2481,
      "찟": 2482,
      "찡": 2483,
      "찢": 2484,
      "차": 2485,
      "착": 2486,
      "찬": 2487,
      "찮": 2488,
      "찯": 2489,
      "찰": 2490,
      "찱": 2491,
      "참": 2492,
      "찹": 2493,
      "찻": 2494,
      "창": 2495,
      "찾": 2496,
      "찿": 2497,
      "챃": 2498,
      "채": 2499,
      "책": 2500,
      "챈": 2501,
      "챌": 2502,
      "챔": 2503,
      "챕": 2504,
      "챗": 2505,
      "챙": 2506,
      "챠": 2507,
      "챡": 2508,
      "챤": 2509,
      "챦": 2510,
      "챨": 2511,
      "챰": 2512,
      "챵": 2513,
      "처": 2514,
      "척": 2515,
      "천": 2516,
      "철": 2517,
      "첨": 2518,
      "첩": 2519,
      "첫": 2520,
      "첬": 2521,
      "청": 2522,
      "첮": 2523,
      "체": 2524,
      "첵": 2525,
      "첸": 2526,
      "첼": 2527,
      "쳅": 2528,
      "쳇": 2529,
      "쳉": 2530,
      "쳐": 2531,
      "쳔": 2532,
      "쳣": 2533,
      "쳤": 2534,
      "쳥": 2535,
      "쳫": 2536,
      "쳬": 2537,
      "초": 2538,
      "촉": 2539,
      "촌": 2540,
      "촏": 2541,
      "촐": 2542,
      "촘": 2543,
      "촛": 2544,
      "총": 2545,
      "촟": 2546,
      "촣": 2547,
      "촤": 2548,
      "촥": 2549,
      "촬": 2550,
      "촹": 2551,
      "쵁": 2552,
      "최": 2553,
      "쵝": 2554,
      "쵴": 2555,
      "쵸": 2556,
      "쵼": 2557,
      "춋": 2558,
      "춌": 2559,
      "추": 2560,
      "축": 2561,
      "춘": 2562,
      "출": 2563,
      "춤": 2564,
      "춥": 2565,
      "춧": 2566,
      "충": 2567,
      "춫": 2568,
      "춬": 2569,
      "춰": 2570,
      "춴": 2571,
      "춸": 2572,
      "췌": 2573,
      "췟": 2574,
      "취": 2575,
      "췬": 2576,
      "츄": 2577,
      "츈": 2578,
      "츔": 2579,
      "츙": 2580,
      "츠": 2581,
      "측": 2582,
      "츤": 2583,
      "츨": 2584,
      "츰": 2585,
      "츳": 2586,
      "층": 2587,
      "츼": 2588,
      "츽": 2589,
      "칀": 2590,
      "치": 2591,
      "칙": 2592,
      "친": 2593,
      "칝": 2594,
      "칠": 2595,
      "침": 2596,
      "칩": 2597,
      "칫": 2598,
      "칭": 2599,
      "칰": 2600,
      "카": 2601,
      "칵": 2602,
      "칸": 2603,
      "칻": 2604,
      "칼": 2605,
      "캄": 2606,
      "캅": 2607,
      "캇": 2608,
      "캉": 2609,
      "캌": 2610,
      "캍": 2611,
      "캐": 2612,
      "캔": 2613,
      "캘": 2614,
      "캠": 2615,
      "캡": 2616,
      "캢": 2617,
      "캣": 2618,
      "캥": 2619,
      "캬": 2620,
      "캭": 2621,
      "캴": 2622,
      "컁": 2623,
      "컄": 2624,
      "커": 2625,
      "컥": 2626,
      "컨": 2627,
      "컫": 2628,
      "컬": 2629,
      "컴": 2630,
      "컵": 2631,
      "컷": 2632,
      "컹": 2633,
      "컼": 2634,
      "컾": 2635,
      "케": 2636,
      "켁": 2637,
      "켄": 2638,
      "켈": 2639,
      "켐": 2640,
      "켓": 2641,
      "켔": 2642,
      "켕": 2643,
      "켘": 2644,
      "켜": 2645,
      "켠": 2646,
      "켤": 2647,
      "켬": 2648,
      "코": 2649,
      "콕": 2650,
      "콘": 2651,
      "콜": 2652,
      "콤": 2653,
      "콥": 2654,
      "콧": 2655,
      "콩": 2656,
      "콬": 2657,
      "콮": 2658,
      "콯": 2659,
      "콰": 2660,
      "콱": 2661,
      "콴": 2662,
      "콸": 2663,
      "쾅": 2664,
      "쾌": 2665,
      "쾡": 2666,
      "쾨": 2667,
      "쿄": 2668,
      "쿈": 2669,
      "쿠": 2670,
      "쿡": 2671,
      "쿤": 2672,
      "쿨": 2673,
      "쿰": 2674,
      "쿳": 2675,
      "쿵": 2676,
      "쿸": 2677,
      "쿼": 2678,
      "퀀": 2679,
      "퀄": 2680,
      "퀘": 2681,
      "퀜": 2682,
      "퀭": 2683,
      "퀴": 2684,
      "퀵": 2685,
      "퀸": 2686,
      "퀼": 2687,
      "큐": 2688,
      "큘": 2689,
      "크": 2690,
      "큭": 2691,
      "큰": 2692,
      "클": 2693,
      "큼": 2694,
      "킁": 2695,
      "킄": 2696,
      "킈": 2697,
      "킌": 2698,
      "키": 2699,
      "킥": 2700,
      "킨": 2701,
      "킬": 2702,
      "킴": 2703,
      "킵": 2704,
      "킷": 2705,
      "킹": 2706,
      "킼": 2707,
      "타": 2708,
      "탁": 2709,
      "탄": 2710,
      "탆": 2711,
      "탈": 2712,
      "탉": 2713,
      "탐": 2714,
      "탑": 2715,
      "탓": 2716,
      "탔": 2717,
      "탕": 2718,
      "탗": 2719,
      "태": 2720,
      "택": 2721,
      "탠": 2722,
      "탤": 2723,
      "탬": 2724,
      "탭": 2725,
      "탯": 2726,
      "탱": 2727,
      "탸": 2728,
      "턀": 2729,
      "터": 2730,
      "턱": 2731,
      "턴": 2732,
      "털": 2733,
      "텀": 2734,
      "텁": 2735,
      "텃": 2736,
      "텅": 2737,
      "텈": 2738,
      "텉": 2739,
      "테": 2740,
      "텍": 2741,
      "텐": 2742,
      "텔": 2743,
      "템": 2744,
      "텝": 2745,
      "텟": 2746,
      "텡": 2747,
      "텨": 2748,
      "토": 2749,
      "톡": 2750,
      "톤": 2751,
      "톨": 2752,
      "톰": 2753,
      "톱": 2754,
      "통": 2755,
      "톼": 2756,
      "퇄": 2757,
      "퇘": 2758,
      "퇴": 2759,
      "툇": 2760,
      "툥": 2761,
      "투": 2762,
      "툭": 2763,
      "툰": 2764,
      "툴": 2765,
      "툼": 2766,
      "툿": 2767,
      "퉁": 2768,
      "퉤": 2769,
      "퉷": 2770,
      "퉽": 2771,
      "튀": 2772,
      "튄": 2773,
      "튕": 2774,
      "튜": 2775,
      "튠": 2776,
      "튤": 2777,
      "튬": 2778,
      "튭": 2779,
      "트": 2780,
      "특": 2781,
      "튼": 2782,
      "튿": 2783,
      "틀": 2784,
      "틈": 2785,
      "틋": 2786,
      "틍": 2787,
      "틐": 2788,
      "틑": 2789,
      "틔": 2790,
      "티": 2791,
      "틱": 2792,
      "틴": 2793,
      "틸": 2794,
      "팀": 2795,
      "팁": 2796,
      "팅": 2797,
      "파": 2798,
      "팍": 2799,
      "팎": 2800,
      "판": 2801,
      "팔": 2802,
      "팜": 2803,
      "팝": 2804,
      "팟": 2805,
      "팠": 2806,
      "팡": 2807,
      "팥": 2808,
      "패": 2809,
      "팩": 2810,
      "팬": 2811,
      "팰": 2812,
      "팸": 2813,
      "팻": 2814,
      "팽": 2815,
      "팾": 2816,
      "퍄": 2817,
      "퍠": 2818,
      "퍼": 2819,
      "퍽": 2820,
      "펀": 2821,
      "펄": 2822,
      "펌": 2823,
      "펏": 2824,
      "펐": 2825,
      "펑": 2826,
      "펔": 2827,
      "페": 2828,
      "펙": 2829,
      "펜": 2830,
      "펠": 2831,
      "펩": 2832,
      "펫": 2833,
      "펭": 2834,
      "펴": 2835,
      "편": 2836,
      "펼": 2837,
      "폄": 2838,
      "폅": 2839,
      "평": 2840,
      "폐": 2841,
      "포": 2842,
      "폭": 2843,
      "폰": 2844,
      "폴": 2845,
      "폼": 2846,
      "폽": 2847,
      "폿": 2848,
      "퐁": 2849,
      "퐈": 2850,
      "퐉": 2851,
      "퐌": 2852,
      "퐛": 2853,
      "퐝": 2854,
      "퐠": 2855,
      "푀": 2856,
      "표": 2857,
      "푱": 2858,
      "푸": 2859,
      "푹": 2860,
      "푼": 2861,
      "풀": 2862,
      "품": 2863,
      "풉": 2864,
      "풋": 2865,
      "풍": 2866,
      "풓": 2867,
      "풔": 2868,
      "풕": 2869,
      "풰": 2870,
      "퓌": 2871,
      "퓨": 2872,
      "퓬": 2873,
      "퓰": 2874,
      "퓽": 2875,
      "프": 2876,
      "픈": 2877,
      "플": 2878,
      "픔": 2879,
      "픕": 2880,
      "피": 2881,
      "픽": 2882,
      "핀": 2883,
      "필": 2884,
      "핍": 2885,
      "핏": 2886,
      "핑": 2887,
      "핓": 2888,
      "핕": 2889,
      "하": 2890,
      "학": 2891,
      "핛": 2892,
      "한": 2893,
      "핟": 2894,
      "할": 2895,
      "핡": 2896,
      "핣": 2897,
      "핥": 2898,
      "핦": 2899,
      "핧": 2900,
      "함": 2901,
      "합": 2902,
      "핫": 2903,
      "핬": 2904,
      "항": 2905,
      "핮": 2906,
      "핯": 2907,
      "핰": 2908,
      "핱": 2909,
      "핳": 2910,
      "해": 2911,
      "핵": 2912,
      "핶": 2913,
      "핸": 2914,
      "핼": 2915,
      "햄": 2916,
      "햅": 2917,
      "햇": 2918,
      "했": 2919,
      "행": 2920,
      "햏": 2921,
      "햐": 2922,
      "햔": 2923,
      "햣": 2924,
      "햤": 2925,
      "향": 2926,
      "햫": 2927,
      "헀": 2928,
      "허": 2929,
      "헉": 2930,
      "헌": 2931,
      "헏": 2932,
      "헐": 2933,
      "헑": 2934,
      "험": 2935,
      "헙": 2936,
      "헛": 2937,
      "헝": 2938,
      "헠": 2939,
      "헣": 2940,
      "헤": 2941,
      "헥": 2942,
      "헨": 2943,
      "헬": 2944,
      "헴": 2945,
      "헵": 2946,
      "헷": 2947,
      "헸": 2948,
      "헹": 2949,
      "헿": 2950,
      "혀": 2951,
      "혁": 2952,
      "현": 2953,
      "혈": 2954,
      "혐": 2955,
      "협": 2956,
      "혓": 2957,
      "형": 2958,
      "혖": 2959,
      "혜": 2960,
      "호": 2961,
      "혹": 2962,
      "혼": 2963,
      "홀": 2964,
      "홈": 2965,
      "홉": 2966,
      "홋": 2967,
      "홍": 2968,
      "홐": 2969,
      "홓": 2970,
      "화": 2971,
      "확": 2972,
      "환": 2973,
      "홙": 2974,
      "활": 2975,
      "홧": 2976,
      "홨": 2977,
      "황": 2978,
      "홪": 2979,
      "홫": 2980,
      "홬": 2981,
      "홯": 2982,
      "홱": 2983,
      "회": 2984,
      "획": 2985,
      "횐": 2986,
      "횔": 2987,
      "횟": 2988,
      "횡": 2989,
      "횤": 2990,
      "효": 2991,
      "횬": 2992,
      "횽": 2993,
      "훃": 2994,
      "후": 2995,
      "훅": 2996,
      "훈": 2997,
      "훋": 2998,
      "훌": 2999,
      "훑": 3000,
      "훓": 3001,
      "훔": 3002,
      "훕": 3003,
      "훗": 3004,
      "훙": 3005,
      "훜": 3006,
      "훟": 3007,
      "훠": 3008,
      "훡": 3009,
      "훤": 3010,
      "훨": 3011,
      "훵": 3012,
      "훸": 3013,
      "훻": 3014,
      "훼": 3015,
      "휏": 3016,
      "휑": 3017,
      "휘": 3018,
      "휙": 3019,
      "휠": 3020,
      "휨": 3021,
      "휩": 3022,
      "휴": 3023,
      "휸": 3024,
      "휼": 3025,
      "흉": 3026,
      "흌": 3027,
      "흏": 3028,
      "흐": 3029,
      "흑": 3030,
      "흔": 3031,
      "흘": 3032,
      "흙": 3033,
      "흝": 3034,
      "흠": 3035,
      "흡": 3036,
      "흣": 3037,
      "흥": 3038,
      "흦": 3039,
      "흨": 3040,
      "흩": 3041,
      "흫": 3042,
      "희": 3043,
      "흰": 3044,
      "흳": 3045,
      "히": 3046,
      "힉": 3047,
      "힌": 3048,
      "힐": 3049,
      "힘": 3050,
      "힙": 3051,
      "힛": 3052,
      "힝": 3053,
      "힞": 3054,
      "힣": 3055,
      "盧": 3056,
      "老": 3057,
      "綠": 3058,
      "不": 3059,
      "禮": 3060,
      "龍": 3061,
      "流": 3062,
      "紐": 3063,
      "律": 3064,
      "慄": 3065,
      "！": 3066,
      "＋": 3067,
      "，": 3068,
      "？": 3069,
      "＼": 3070,
      "＾": 3071,
      "｀": 3072,
      "ｘ": 3073,
      "～": 3074,
      "￣": 3075,
      "##한": 3076,
      "##쏭": 3077,
      "##달": 3078,
      "##씀": 3079,
      "##찡": 3080,
      "##불": 3081,
      "##장": 3082,
      "##군": 3083,
      "##축": 3084,
      "##업": 3085,
      "##주": 3086,
      "##율": 3087,
      "##의": 3088,
      "##혁": 3089,
      "##아": 3090,
      "##가": 3091,
      "##다": 3092,
      "##뇨": 3093,
      "##포": 3094,
      "##중": 3095,
      "##평": 3096,
      "##되": 3097,
      "##있": 3098,
      "##네": 3099,
      "##른": 3100,
      "##손": 3101,
      "##낭": 3102,
      "##나": 3103,
      "##안": 3104,
      "##연": 3105,
      "##떡": 3106,
      "##치": 3107,
      "##일": 3108,
      "##정": 3109,
      "##희": 3110,
      "##글": 3111,
      "##우": 3112,
      "##ㅎ": 3113,
      "##버": 3114,
      "##리": 3115,
      "##밋": 3116,
      "##갰": 3117,
      "##내": 3118,
      "##종": 3119,
      "##부": 3120,
      "##슬": 3121,
      "##프": 3122,
      "##이": 3123,
      "##폰": 3124,
      "##5": 3125,
      "##란": 3126,
      "##얼": 3127,
      "##웅": 3128,
      "##키": 3129,
      "##청": 3130,
      "##작": 3131,
      "##짝": 3132,
      "##마": 3133,
      "##누": 3134,
      "##엘": 3135,
      "##요": 3136,
      "##큰": 3137,
      "##루": 3138,
      "##니": 3139,
      "##층": 3140,
      "##잇": 3141,
      "##엇": 3142,
      "##지": 3143,
      "##짓": 3144,
      "##라": 3145,
      "##구": 3146,
      "##여": 3147,
      "##로": 3148,
      "##에": 3149,
      "##잼": 3150,
      "##기": 3151,
      "##임": 3152,
      "##p": 3153,
      "##e": 3154,
      "##g": 3155,
      "##쓸": 3156,
      "##쇼": 3157,
      "##크": 3158,
      "##져": 3159,
      "##윤": 3160,
      "##반": 3161,
      "##도": 3162,
      "##따": 3163,
      "##원": 3164,
      "##a": 3165,
      "##b": 3166,
      "##y": 3167,
      "##j": 3168,
      "##u": 3169,
      "##l": 3170,
      "##r": 3171,
      "##s": 3172,
      "##i": 3173,
      "##t": 3174,
      "##타": 3175,
      "##귀": 3176,
      "##퍼": 3177,
      "##놈": 3178,
      "##까": 3179,
      "##h": 3180,
      "##끈": 3181,
      "##형": 3182,
      "##규": 3183,
      "##자": 3184,
      "##봐": 3185,
      "##람": 3186,
      "##직": 3187,
      "##하": 3188,
      "##시": 3189,
      "##x": 3190,
      "##c": 3191,
      "##화": 3192,
      "##경": 3193,
      "##바": 3194,
      "##스": 3195,
      "##쩔": 3196,
      "##어": 3197,
      "##트": 3198,
      "##홀": 3199,
      "##선": 3200,
      "##력": 3201,
      "##물": 3202,
      "##명": 3203,
      "##카": 3204,
      "##러": 3205,
      "##메": 3206,
      "##고": 3207,
      "##틱": 3208,
      "##디": 3209,
      "##현": 3210,
      "##빠": 3211,
      "##오": 3212,
      "##담": 3213,
      "##태": 3214,
      "##세": 3215,
      "##방": 3216,
      "##투": 3217,
      "##더": 3218,
      "##퓨": 3219,
      "##쳐": 3220,
      "##진": 3221,
      "##못": 3222,
      "##미": 3223,
      "##샤": 3224,
      "##래": 3225,
      "##끼": 3226,
      "##려": 3227,
      "##런": 3228,
      "##히": 3229,
      "##겔": 3230,
      "##탄": 3231,
      "##두": 3232,
      "##탈": 3233,
      "##즘": 3234,
      "##야": 3235,
      "##으": 3236,
      "##양": 3237,
      "##동": 3238,
      "##o": 3239,
      "##n": 3240,
      "##활": 3241,
      "##절": 3242,
      "##던": 3243,
      "##굴": 3244,
      "##편": 3245,
      "##애": 3246,
      "##매": 3247,
      "##션": 3248,
      "##왕": 3249,
      "##쁜": 3250,
      "##심": 3251,
      "##거": 3252,
      "##밌": 3253,
      "##습": 3254,
      "##돠": 3255,
      "##품": 3256,
      "##점": 3257,
      "##플": 3258,
      "##뎈": 3259,
      "##놬": 3260,
      "##번": 3261,
      "##봤": 3262,
      "##넥": 3263,
      "##회": 3264,
      "##색": 3265,
      "##영": 3266,
      "##르": 3267,
      "##젠": 3268,
      "##토": 3269,
      "##그": 3270,
      "##브": 3271,
      "##떻": 3272,
      "##든": 3273,
      "##련": 3274,
      "##차": 3275,
      "##d": 3276,
      "##햐": 3277,
      "##짐": 3278,
      "##뎅": 3279,
      "##수": 3280,
      "##환": 3281,
      "##합": 3282,
      "##조": 3283,
      "##았": 3284,
      "##드": 3285,
      "##모": 3286,
      "##튼": 3287,
      "##과": 3288,
      "##벨": 3289,
      "##얀": 3290,
      "##켈": 3291,
      "##팬": 3292,
      "##언": 3293,
      "##적": 3294,
      "##는": 3295,
      "##섀": 3296,
      "##무": 3297,
      "##비": 3298,
      "##릴": 3299,
      "##곤": 3300,
      "##꿉": 3301,
      "##난": 3302,
      "##택": 3303,
      "##들": 3304,
      "##사": 3305,
      "##박": 3306,
      "##감": 3307,
      "##을": 3308,
      "##듯": 3309,
      "##터": 3310,
      "##초": 3311,
      "##풍": 3312,
      "##께": 3313,
      "##보": 3314,
      "##노": 3315,
      "##코": 3316,
      "##학": 3317,
      "##관": 3318,
      "##제": 3319,
      "##목": 3320,
      "##행": 3321,
      "##욱": 3322,
      "##캐": 3323,
      "##릭": 3324,
      "##v": 3325,
      "##식": 3326,
      "##례": 3327,
      "##텐": 3328,
      "##팅": 3329,
      "##w": 3330,
      "##f": 3331,
      "##말": 3332,
      "##전": 3333,
      "##공": 3334,
      "##생": 3335,
      "##각": 3336,
      "##ㅠ": 3337,
      "##겨": 3338,
      "##면": 3339,
      "##쇠": 3340,
      "##갤": 3341,
      "##성": 3342,
      "##인": 3343,
      "##닝": 3344,
      "##봉": 3345,
      "##숭": 3346,
      "##유": 3347,
      "##8": 3348,
      "##9": 3349,
      "##됫": 3350,
      "##데": 3351,
      "##촬": 3352,
      "##컨": 3353,
      "##샙": 3354,
      "##분": 3355,
      "##티": 3356,
      "##킹": 3357,
      "##호": 3358,
      "##탕": 3359,
      "##잭": 3360,
      "##톤": 3361,
      "##줌": 3362,
      "##온": 3363,
      "##슈": 3364,
      "##게": 3365,
      "##뭥": 3366,
      "##파": 3367,
      "##운": 3368,
      "##새": 3369,
      "##흐": 3370,
      "##밑": 3371,
      "##민": 3372,
      "##론": 3373,
      "##준": 3374,
      "##1": 3375,
      "##문": 3376,
      "##듬": 3377,
      "##엣": 3378,
      "##재": 3379,
      "##빨": 3380,
      "##대": 3381,
      "##m": 3382,
      "##혼": 3383,
      "##십": 3384,
      "##콥": 3385,
      "##와": 3386,
      "##냐": 3387,
      "##털": 3388,
      "##워": 3389,
      "##근": 3390,
      "##닼": 3391,
      "##훈": 3392,
      "##판": 3393,
      "##잉": 3394,
      "##떼": 3395,
      "##궈": 3396,
      "##클": 3397,
      "##엄": 3398,
      "##격": 3399,
      "##레": 3400,
      "##휴": 3401,
      "##슨": 3402,
      "##후": 3403,
      "##막": 3404,
      "##턱": 3405,
      "##서": 3406,
      "##좋": 3407,
      "##앗": 3408,
      "##짜": 3409,
      "##커": 3410,
      "##베": 3411,
      "##싱": 3412,
      "##춘": 3413,
      "##폐": 3414,
      "##쑤": 3415,
      "##춰": 3416,
      "##잔": 3417,
      "##신": 3418,
      "##숨": 3419,
      "##페": 3420,
      "##쪙": 3421,
      "##역": 3422,
      "##4": 3423,
      "##2": 3424,
      "##삭": 3425,
      "##꾸": 3426,
      "##벌": 3427,
      "##탱": 3428,
      "##뚤": 3429,
      "##앰": 3430,
      "##계": 3431,
      "##너": 3432,
      "##럽": 3433,
      "##질": 3434,
      "##며": 3435,
      "##단": 3436,
      "##국": 3437,
      "##병": 3438,
      "##극": 3439,
      "##상": 3440,
      "##범": 3441,
      "##죄": 3442,
      "##났": 3443,
      "##탠": 3444,
      "##끗": 3445,
      "##석": 3446,
      "##천": 3447,
      "##씨": 3448,
      "##q": 3449,
      "##k": 3450,
      "##쿡": 3451,
      "##건": 3452,
      "##실": 3453,
      "##않": 3454,
      "##냠": 3455,
      "##♥": 3456,
      "##뿐": 3457,
      "##쳤": 3458,
      "##없": 3459,
      "##흙": 3460,
      "##출": 3461,
      "##뭣": 3462,
      "##테": 3463,
      "##칠": 3464,
      "##갯": 3465,
      "##슴": 3466,
      "##살": 3467,
      "##긴": 3468,
      "##셨": 3469,
      "##샅": 3470,
      "##쩍": 3471,
      "##윈": 3472,
      "##쉬": 3473,
      "##해": 3474,
      "##깐": 3475,
      "##독": 3476,
      "##좌": 3477,
      "##즈": 3478,
      "##추": 3479,
      "##눌": 3480,
      "##함": 3481,
      "##승": 3482,
      "##복": 3483,
      "##존": 3484,
      "##옴": 3485,
      "##당": 3486,
      "##알": 3487,
      "##통": 3488,
      "##발": 3489,
      "##퇘": 3490,
      "##효": 3491,
      "##증": 3492,
      "##찰": 3493,
      "##블": 3494,
      "##린": 3495,
      "##용": 3496,
      "##푼": 3497,
      "##교": 3498,
      "##저": 3499,
      "##때": 3500,
      "##악": 3501,
      "##징": 3502,
      "##걸": 3503,
      "##념": 3504,
      "##0": 3505,
      "##7": 3506,
      "##6": 3507,
      "##젓": 3508,
      "##족": 3509,
      "##외": 3510,
      "##느": 3511,
      "##빈": 3512,
      "##순": 3513,
      "##턴": 3514,
      "##처": 3515,
      "##멀": 3516,
      "##먹": 3517,
      "##밥": 3518,
      "##쿠": 3519,
      "##륭": 3520,
      "##껴": 3521,
      "##음": 3522,
      "##산": 3523,
      "##웽": 3524,
      "##쩌": 3525,
      "##럿": 3526,
      "##강": 3527,
      "##송": 3528,
      "##밀": 3529,
      "##똘": 3530,
      "##펴": 3531,
      "##욥": 3532,
      "##님": 3533,
      "##닐": 3534,
      "##갛": 3535,
      "##앓": 3536,
      "##렌": 3537,
      "##광": 3538,
      "##백": 3539,
      "##텔": 3540,
      "##짱": 3541,
      "##뮤": 3542,
      "##3": 3543,
      "##ㅋ": 3544,
      "##옥": 3545,
      "##럴": 3546,
      "##ㅇ": 3547,
      "##ㄷ": 3548,
      "##꼬": 3549,
      "##또": 3550,
      "##령": 3551,
      "##ㅡ": 3552,
      "##뻐": 3553,
      "##쓰": 3554,
      "##삐": 3555,
      "##먼": 3556,
      "##열": 3557,
      "##믄": 3558,
      "##뜩": 3559,
      "##허": 3560,
      "##헐": 3561,
      "##큐": 3562,
      "##멘": 3563,
      "##소": 3564,
      "##료": 3565,
      "##갈": 3566,
      "##간": 3567,
      "##껄": 3568,
      "##틐": 3569,
      "##곽": 3570,
      "##짴": 3571,
      "##륺": 3572,
      "##법": 3573,
      "##체": 3574,
      "##류": 3575,
      "##겁": 3576,
      "##뺐": 3577,
      "##겼": 3578,
      "##만": 3579,
      "##븐": 3580,
      "##떨": 3581,
      "##옹": 3582,
      "##엃": 3583,
      "##죠": 3584,
      "##웨": 3585,
      "##츠": 3586,
      "##개": 3587,
      "##칰": 3588,
      "##칸": 3589,
      "##뽀": 3590,
      "##덤": 3591,
      "##쎄": 3592,
      "##뉴": 3593,
      "##낰": 3594,
      "##날": 3595,
      "##균": 3596,
      "##셋": 3597,
      "##향": 3598,
      "##릣": 3599,
      "##딛": 3600,
      "##략": 3601,
      "##피": 3602,
      "##땅": 3603,
      "##쵸": 3604,
      "##～": 3605,
      "##채": 3606,
      "##락": 3607,
      "##량": 3608,
      "##년": 3609,
      "##금": 3610,
      "##릇": 3611,
      "##검": 3612,
      "##괴": 3613,
      "##득": 3614,
      "##퓰": 3615,
      "##골": 3616,
      "##딱": 3617,
      "##등": 3618,
      "##남": 3619,
      "##탑": 3620,
      "##덕": 3621,
      "##약": 3622,
      "##울": 3623,
      "##ㅜ": 3624,
      "##입": 3625,
      "##렉": 3626,
      "##ㅅ": 3627,
      "##셀": 3628,
      "##뜨": 3629,
      "##힌": 3630,
      "##랑": 3631,
      "##섬": 3632,
      "##완": 3633,
      "##견": 3634,
      "##갑": 3635,
      "##멈": 3636,
      "##움": 3637,
      "##쎤": 3638,
      "##액": 3639,
      "##냄": 3640,
      "##딩": 3641,
      "##예": 3642,
      "##띵": 3643,
      "##뻔": 3644,
      "##뭐": 3645,
      "##림": 3646,
      "##랐": 3647,
      "##집": 3648,
      "##창": 3649,
      "##급": 3650,
      "##배": 3651,
      "##쯔": 3652,
      "##둥": 3653,
      "##척": 3654,
      "##육": 3655,
      "##표": 3656,
      "##위": 3657,
      "##케": 3658,
      "##볼": 3659,
      "##항": 3660,
      "##익": 3661,
      "##링": 3662,
      "##ㄴ": 3663,
      "##ㅍ": 3664,
      "##ㅈ": 3665,
      "##젼": 3666,
      "##싶": 3667,
      "##픔": 3668,
      "##별": 3669,
      "##은": 3670,
      "##씬": 3671,
      "##폭": 3672,
      "##곡": 3673,
      "##녀": 3674,
      "##딸": 3675,
      "##뚝": 3676,
      "##엔": 3677,
      "##둔": 3678,
      "##째": 3679,
      "##콘": 3680,
      "##핵": 3681,
      "##뤄": 3682,
      "##줏": 3683,
      "##핬": 3684,
      "##봇": 3685,
      "##멜": 3686,
      "##망": 3687,
      "##ㄹ": 3688,
      "##넒": 3689,
      "##혀": 3690,
      "##졸": 3691,
      "##좃": 3692,
      "##퉷": 3693,
      "##홧": 3694,
      "##앉": 3695,
      "##찬": 3696,
      "##뭇": 3697,
      "##머": 3698,
      "##할": 3699,
      "##접": 3700,
      "##틀": 3701,
      "##록": 3702,
      "##왔": 3703,
      "##넹": 3704,
      "##덴": 3705,
      "##응": 3706,
      "##힘": 3707,
      "##뷰": 3708,
      "##겝": 3709,
      "##길": 3710,
      "##­": 3711,
      "##넷": 3712,
      "##엠": 3713,
      "##줄": 3714,
      "##를": 3715,
      "##취": 3716,
      "##럼": 3717,
      "##앵": 3718,
      "##뼈": 3719,
      "##끄": 3720,
      "##롱": 3721,
      "##삘": 3722,
      "##넘": 3723,
      "##ㅌ": 3724,
      "##닿": 3725,
      "##붙": 3726,
      "##엉": 3727,
      "##욯": 3728,
      "##킨": 3729,
      "##롬": 3730,
      "##ㅁ": 3731,
      "##ㄻ": 3732,
      "##슐": 3733,
      "##푸": 3734,
      "##쌘": 3735,
      "##댸": 3736,
      "##빌": 3737,
      "##률": 3738,
      "##뽕": 3739,
      "##켜": 3740,
      "##최": 3741,
      "##샘": 3742,
      "##헿": 3743,
      "##름": 3744,
      "##갹": 3745,
      "##혹": 3746,
      "##랜": 3747,
      "##촉": 3748,
      "##챦": 3749,
      "##뎁": 3750,
      "##쨍": 3751,
      "##틈": 3752,
      "##올": 3753,
      "##끔": 3754,
      "##훔": 3755,
      "##험": 3756,
      "##철": 3757,
      "##ㅊ": 3758,
      "##꾼": 3759,
      "##썰": 3760,
      "##닉": 3761,
      "##캅": 3762,
      "##렐": 3763,
      "##뜯": 3764,
      "##삼": 3765,
      "##숖": 3766,
      "##끌": 3767,
      "##곳": 3768,
      "##틴": 3769,
      "##셈": 3770,
      "##앙": 3771,
      "##밍": 3772,
      "##귱": 3773,
      "##뼉": 3774,
      "##찐": 3775,
      "##황": 3776,
      "##폴": 3777,
      "##홈": 3778,
      "##친": 3779,
      "##퀴": 3780,
      "##쏘": 3781,
      "##착": 3782,
      "##싸": 3783,
      "##。": 3784,
      "##！": 3785,
      "##ㄲ": 3786,
      "##몽": 3787,
      "##컥": 3788,
      "##팔": 3789,
      "##젬": 3790,
      "##줘": 3791,
      "##억": 3792,
      "##확": 3793,
      "##씁": 3794,
      "##겡": 3795,
      "##こ": 3796,
      "##と": 3797,
      "##が": 3798,
      "##で": 3799,
      "##き": 3800,
      "##な": 3801,
      "##い": 3802,
      "##낌": 3803,
      "##벅": 3804,
      "##뇬": 3805,
      "##돌": 3806,
      "##셔": 3807,
      "##놑": 3808,
      "##월": 3809,
      "##꿈": 3810,
      "##죽": 3811,
      "##패": 3812,
      "##속": 3813,
      "##톡": 3814,
      "##촌": 3815,
      "##룡": 3816,
      "##풀": 3817,
      "##욷": 3818,
      "##랭": 3819,
      "##듣": 3820,
      "##몰": 3821,
      "##붓": 3822,
      "##혈": 3823,
      "##혜": 3824,
      "##땀": 3825,
      "##싹": 3826,
      "##술": 3827,
      "##필": 3828,
      "##쪽": 3829,
      "##겄": 3830,
      "##궁": 3831,
      "##굿": 3832,
      "##쟘": 3833,
      "##렷": 3834,
      "##굳": 3835,
      "##멸": 3836,
      "##돼": 3837,
      "##ㅗ": 3838,
      "##립": 3839,
      "##켁": 3840,
      "##본": 3841,
      "##됴": 3842,
      "##럭": 3843,
      "##핀": 3844,
      "##왈": 3845,
      "##텍": 3846,
      "##깔": 3847,
      "##岡": 3848,
      "##蒼": 3849,
      "##佑": 3850,
      "##맥": 3851,
      "##셜": 3852,
      "##갖": 3853,
      "##권": 3854,
      "##セ": 3855,
      "##ッ": 3856,
      "##ク": 3857,
      "##ス": 3858,
      "##엋": 3859,
      "##침": 3860,
      "##★": 3861,
      "##같": 3862,
      "##숙": 3863,
      "##볶": 3864,
      "##젧": 3865,
      "##꼴": 3866,
      "##걍": 3867,
      "##객": 3868,
      "##、": 3869,
      "##팍": 3870,
      "##깨": 3871,
      "##꿔": 3872,
      "##맨": 3873,
      "##z": 3874,
      "##낄": 3875,
      "##퍽": 3876,
      "##얔": 3877,
      "##슝": 3878,
      "##빡": 3879,
      "##듷": 3880,
      "##닌": 3881,
      "##염": 3882,
      "##녕": 3883,
      "##딧": 3884,
      "##렬": 3885,
      "##답": 3886,
      "##슷": 3887,
      "##큼": 3888,
      "##뿡": 3889,
      "##늘": 3890,
      "##겋": 3891,
      "##꺼": 3892,
      "##벤": 3893,
      "##딴": 3894,
      "##휘": 3895,
      "##間": 3896,
      "##道": 3897,
      "##닥": 3898,
      "##엽": 3899,
      "##킥": 3900,
      "##협": 3901,
      "##ㆍ": 3902,
      "##ㄱ": 3903,
      "##ㅂ": 3904,
      "##델": 3905,
      "##헠": 3906,
      "##댐": 3907,
      "##겟": 3908,
      "##농": 3909,
      "##콩": 3910,
      "##面": 3911,
      "##的": 3912,
      "##歌": 3913,
      "##曲": 3914,
      "##都": 3915,
      "##쩜": 3916,
      "##므": 3917,
      "##렛": 3918,
      "##햄": 3919,
      "##결": 3920,
      "##흥": 3921,
      "##였": 3922,
      "##젤": 3923,
      "##것": 3924,
      "##겜": 3925,
      "##꼭": 3926,
      "##쟝": 3927,
      "##센": 3928,
      "##ㅐ": 3929,
      "##뱀": 3930,
      "##륙": 3931,
      "##뚫": 3932,
      "##놓": 3933,
      "##곱": 3934,
      "##훌": 3935,
      "##뻗": 3936,
      "##첨": 3937,
      "##뭄": 3938,
      "##쿨": 3939,
      "##앤": 3940,
      "##찌": 3941,
      "##묵": 3942,
      "##잡": 3943,
      "##늑": 3944,
      "##돈": 3945,
      "##벙": 3946,
      "##륜": 3947,
      "##웃": 3948,
      "##믐": 3949,
      "##횤": 3950,
      "##◑": 3951,
      "##릅": 3952,
      "##듀": 3953,
      "##밭": 3954,
      "##능": 3955,
      "##껏": 3956,
      "##빼": 3957,
      "##쁘": 3958,
      "##닷": 3959,
      "##덩": 3960,
      "##쟁": 3961,
      "##김": 3962,
      "##꽁": 3963,
      "##쪄": 3964,
      "##띠": 3965,
      "##꿀": 3966,
      "##猶": 3967,
      "##不": 3968,
      "##及": 3969,
      "##했": 3970,
      "##뻣": 3971,
      "##칭": 3972,
      "##랙": 3973,
      "##ㅣ": 3974,
      "##밓": 3975,
      "##컷": 3976,
      "##武": 3977,
      "##뤌": 3978,
      "##렁": 3979,
      "##イ": 3980,
      "##ン": 3981,
      "##テ": 3982,
      "##뢰": 3983,
      "##빗": 3984,
      "##설": 3985,
      "##릿": 3986,
      "##딕": 3987,
      "##팝": 3988,
      "##써": 3989,
      "##텝": 3990,
      "##눈": 3991,
      "##엿": 3992,
      "##꺄": 3993,
      "##혐": 3994,
      "##샵": 3995,
      "##힣": 3996,
      "##떄": 3997,
      "##섭": 3998,
      "##쟈": 3999,
      "##쨔": 4000,
      "##받": 4001,
      "##충": 4002,
      "##샴": 4003,
      "##튜": 4004,
      "##돋": 4005,
      "##넼": 4006,
      "##씽": 4007,
      "##펙": 4008,
      "##렵": 4009,
      "##겐": 4010,
      "##헝": 4011,
      "##싢": 4012,
      "##흡": 4013,
      "##댕": 4014,
      "##쇄": 4015,
      "##쒸": 4016,
      "##햫": 4017,
      "##빵": 4018,
      "##졋": 4019,
      "##얄": 4020,
      "##압": 4021,
      "##북": 4022,
      "##훙": 4023,
      "##묘": 4024,
      "##끓": 4025,
      "##킼": 4026,
      "##흫": 4027,
      "##훟": 4028,
      "##룩": 4029,
      "##잖": 4030,
      "##늬": 4031,
      "##욧": 4032,
      "##륵": 4033,
      "##쨋": 4034,
      "##땃": 4035,
      "##슉": 4036,
      "##칙": 4037,
      "##싯": 4038,
      "##찮": 4039,
      "##뚜": 4040,
      "##作": 4041,
      "##꽝": 4042,
      "##윌": 4043,
      "##쑨": 4044,
      "##특": 4045,
      "##긔": 4046,
      "##솔": 4047,
      "##맹": 4048,
      "##변": 4049,
      "##쾌": 4050,
      "##룹": 4051,
      "##닛": 4052,
      "##궤": 4053,
      "##핸": 4054,
      "##ㅛ": 4055,
      "##퉤": 4056,
      "##빛": 4057,
      "##퇴": 4058,
      "##획": 4059,
      "##왜": 4060,
      "##쌔": 4061,
      "##흑": 4062,
      "##헬": 4063,
      "##읍": 4064,
      "##뮈": 4065,
      "##겹": 4066,
      "##뷔": 4067,
      "##칫": 4068,
      "##씅": 4069,
      "##쾅": 4070,
      "##콰": 4071,
      "##렙": 4072,
      "##ㅕ": 4073,
      "##땁": 4074,
      "##잠": 4075,
      "##춤": 4076,
      "##빰": 4077,
      "##빱": 4078,
      "##뇌": 4079,
      "##흘": 4080,
      "##엏": 4081,
      "##헑": 4082,
      "##ㅏ": 4083,
      "##섯": 4084,
      "##쥐": 4085,
      "##렠": 4086,
      "##を": 4087,
      "##し": 4088,
      "##た": 4089,
      "##す": 4090,
      "##늠": 4091,
      "##밧": 4092,
      "##핑": 4093,
      "##훗": 4094,
      "##낑": 4095,
      "##볍": 4096,
      "##튀": 4097,
      "##헌": 4098,
      "##얌": 4099,
      "##곧": 4100,
      "##맬": 4101,
      "##헤": 4102,
      "##봣": 4103,
      "##갔": 4104,
      "##곸": 4105,
      "##둣": 4106,
      "##렇": 4107,
      "##괸": 4108,
      "##븅": 4109,
      "##葉": 4110,
      "##껑": 4111,
      "##홍": 4112,
      "##탔": 4113,
      "##램": 4114,
      "##묻": 4115,
      "##옷": 4116,
      "##딬": 4117,
      "##늄": 4118,
      "##밉": 4119,
      "##퐁": 4120,
      "##땡": 4121,
      "##릐": 4122,
      "##꿎": 4123,
      "##쌍": 4124,
      "##녁": 4125,
      "##덛": 4126,
      "##썸": 4127,
      "##윰": 4128,
      "##빙": 4129,
      "##첸": 4130,
      "##힐": 4131,
      "##었": 4132,
      "##벽": 4133,
      "##굽": 4134,
      "##씸": 4135,
      "##즌": 4136,
      "##펜": 4137,
      "##뤽": 4138,
      "##앳": 4139,
      "##낍": 4140,
      "##겠": 4141,
      "##…": 4142,
      "##욕": 4143,
      "##총": 4144,
      "##\\": 4145,
      "##줍": 4146,
      "##뇽": 4147,
      "##헴": 4148,
      "##렴": 4149,
      "##츄": 4150,
      "##툿": 4151,
      "##윽": 4152,
      "##몬": 4153,
      "##책": 4154,
      "##룸": 4155,
      "##툭": 4156,
      "##첼": 4157,
      "##꺽": 4158,
      "##닮": 4159,
      "##컄": 4160,
      "##캬": 4161,
      "##랏": 4162,
      "##촘": 4163,
      "##깁": 4164,
      "##냉": 4165,
      "##쯩": 4166,
      "##윙": 4167,
      "##뿌": 4168,
      "##ゃ": 4169,
      "##셉": 4170,
      "##참": 4171,
      "##롭": 4172,
      "##랍": 4173,
      "##쏙": 4174,
      "##ㅓ": 4175,
      "##콜": 4176,
      "##땜": 4177,
      "##씹": 4178,
      "##뚱": 4179,
      "##짖": 4180,
      "##쥬": 4181,
      "##랩": 4182,
      "##멋": 4183,
      "##팀": 4184,
      "##手": 4185,
      "##싑": 4186,
      "##먀": 4187,
      "##ㅃ": 4188,
      "##퀘": 4189,
      "##킴": 4190,
      "##펑": 4191,
      "##칀": 4192,
      "##밎": 4193,
      "##쨩": 4194,
      "##놨": 4195,
      "##컬": 4196,
      "##쪼": 4197,
      "##놔": 4198,
      "##맀": 4199,
      "##콕": 4200,
      "##넬": 4201,
      "##慄": 4202,
      "##맘": 4203,
      "##톱": 4204,
      "##뜻": 4205,
      "##깄": 4206,
      "##好": 4207,
      "##콸": 4208,
      "##넛": 4209,
      "##퉁": 4210,
      "##옼": 4211,
      "##훨": 4212,
      "##쏜": 4213,
      "##뎐": 4214,
      "##찍": 4215,
      "##켓": 4216,
      "##몸": 4217,
      "##얍": 4218,
      "##品": 4219,
      "##맷": 4220,
      "##앜": 4221,
      "##핫": 4222,
      "##쯤": 4223,
      "##흣": 4224,
      "##뵈": 4225,
      "##쫒": 4226,
      "##흏": 4227,
      "##쭈": 4228,
      "##꼽": 4229,
      "##잘": 4230,
      "##흔": 4231,
      "##큘": 4232,
      "##펄": 4233,
      "##짚": 4234,
      "##셍": 4235,
      "##멍": 4236,
      "##딜": 4237,
      "##下": 4238,
      "##읅": 4239,
      "##윅": 4240,
      "##킬": 4241,
      "##측": 4242,
      "##암": 4243,
      "##깝": 4244,
      "##떠": 4245,
      "##샌": 4246,
      "##錢": 4247,
      "##有": 4248,
      "##罪": 4249,
      "##湖": 4250,
      "##랫": 4251,
      "##봄": 4252,
      "##넝": 4253,
      "##픈": 4254,
      "##믈": 4255,
      "##女": 4256,
      "##ㅘ": 4257,
      "##死": 4258,
      "##흠": 4259,
      "##닫": 4260,
      "##랬": 4261,
      "##죤": 4262,
      "##看": 4263,
      "##婦": 4264,
      "##街": 4265,
      "##붕": 4266,
      "##킷": 4267,
      "##짤": 4268,
      "##퀀": 4269,
      "##뭏": 4270,
      "##덥": 4271,
      "##頭": 4272,
      "##蛇": 4273,
      "##尾": 4274,
      "##웠": 4275,
      "##홬": 4276,
      "##썽": 4277,
      "##귓": 4278,
      "##잣": 4279,
      "##냥": 4280,
      "##웡": 4281,
      "##믹": 4282,
      "##밴": 4283,
      "##쁩": 4284,
      "##갸": 4285,
      "##펠": 4286,
      "##룬": 4287,
      "##名": 4288,
      "##쿤": 4289,
      "##쥼": 4290,
      "##횽": 4291,
      "##긋": 4292,
      "##곷": 4293,
      "##高": 4294,
      "##峰": 4295,
      "##룻": 4296,
      "##♡": 4297,
      "##놀": 4298,
      "##義": 4299,
      "##숑": 4300,
      "##뿟": 4301,
      "##쁨": 4302,
      "##뤼": 4303,
      "##솤": 4304,
      "##꾀": 4305,
      "##쵝": 4306,
      "##롯": 4307,
      "##엥": 4308,
      "##졌": 4309,
      "##셰": 4310,
      "##탁": 4311,
      "##쟀": 4312,
      "##틸": 4313,
      "##먄": 4314,
      "##쏨": 4315,
      "##ᆞ": 4316,
      "##앖": 4317,
      "##붅": 4318,
      "##껒": 4319,
      "##퀄": 4320,
      "##좀": 4321,
      "##ㅉ": 4322,
      "##쭘": 4323,
      "##뤠": 4324,
      "##댄": 4325,
      "##쟄": 4326,
      "##댖": 4327,
      "##옵": 4328,
      "##낚": 4329,
      "##랄": 4330,
      "##깤": 4331,
      "##픽": 4332,
      "##댣": 4333,
      "##껍": 4334,
      "##봊": 4335,
      "##솢": 4336,
      "##논": 4337,
      "##낙": 4338,
      "##쉘": 4339,
      "##봬": 4340,
      "##널": 4341,
      "##맛": 4342,
      "##옾": 4343,
      "##앀": 4344,
      "##맞": 4345,
      "##言": 4346,
      "##쉽": 4347,
      "##겻": 4348,
      "##얘": 4349,
      "##핰": 4350,
      "##小": 4351,
      "##棒": 4352,
      "##大": 4353,
      "##짬": 4354,
      "##됀": 4355,
      "##쉐": 4356,
      "##淇": 4357,
      "##랰": 4358,
      "##칼": 4359,
      "##뇰": 4360,
      "##썩": 4361,
      "##캠": 4362,
      "##롤": 4363,
      "##쉰": 4364,
      "##넌": 4365,
      "##값": 4366,
      "##랴": 4367,
      "##쿼": 4368,
      "##쑴": 4369,
      "##폼": 4370,
      "##잛": 4371,
      "##뎀": 4372,
      "##텨": 4373,
      "##쎀": 4374,
      "##♬": 4375,
      "##♪": 4376,
      "##챠": 4377,
      "##겓": 4378,
      "##옌": 4379,
      "##욤": 4380,
      "##캌": 4381,
      "##딪": 4382,
      "##챈": 4383,
      "##山": 4384,
      "##옛": 4385,
      "##켄": 4386,
      "##힝": 4387,
      "##짧": 4388,
      "##팩": 4389,
      "##엎": 4390,
      "##즁": 4391,
      "##왝": 4392,
      "##쬬": 4393,
      "##낀": 4394,
      "##뛰": 4395,
      "##핳": 4396,
      "##流": 4397,
      "##쥴": 4398,
      "##멧": 4399,
      "##샷": 4400,
      "##떤": 4401,
      "##퀸": 4402,
      "##헨": 4403,
      "##캔": 4404,
      "##팡": 4405,
      "##쎗": 4406,
      "##쁠": 4407,
      "##잎": 4408,
      "##떔": 4409,
      "##빅": 4410,
      "##쯗": 4411,
      "##렸": 4412,
      "##앨": 4413,
      "##줠": 4414,
      "##쌈": 4415,
      "##헛": 4416,
      "##밸": 4417,
      "##웤": 4418,
      "##럤": 4419,
      "##뱅": 4420,
      "##템": 4421,
      "##깊": 4422,
      "##봅": 4423,
      "##엑": 4424,
      "##밤": 4425,
      "##밫": 4426,
      "##쳥": 4427,
      "##☆": 4428,
      "##덜": 4429,
      "##憎": 4430,
      "##탐": 4431,
      "##깡": 4432,
      "##쪠": 4433,
      "##쭉": 4434,
      "##깃": 4435,
      "##텅": 4436,
      "##훓": 4437,
      "##싰": 4438,
      "##웬": 4439,
      "##캣": 4440,
      "##쨓": 4441,
      "##왘": 4442,
      "##욬": 4443,
      "##벳": 4444,
      "##쿵": 4445,
      "##엾": 4446,
      "##쌤": 4447,
      "##슛": 4448,
      "##샹": 4449,
      "##깽": 4450,
      "##짭": 4451,
      "##뿅": 4452,
      "##셸": 4453,
      "##훼": 4454,
      "##∇": 4455,
      "##≤": 4456,
      "##뿔": 4457,
      "##몾": 4458,
      "##맄": 4459,
      "##뢔": 4460,
      "##팽": 4461,
      "##귤": 4462,
      "##끠": 4463,
      "##탉": 4464,
      "##곰": 4465,
      "##헉": 4466,
      "##탯": 4467,
      "##쉿": 4468,
      "##ㆀ": 4469,
      "##맣": 4470,
      "##샬": 4471,
      "##즉": 4472,
      "##졎": 4473,
      "##걑": 4474,
      "##넙": 4475,
      "##펀": 4476,
      "##룽": 4477,
      "##섹": 4478,
      "##뫀": 4479,
      "##쉡": 4480,
      "##앟": 4481,
      "##쿄": 4482,
      "##엨": 4483,
      "##웩": 4484,
      "##家": 4485,
      "##죵": 4486,
      "##긍": 4487,
      "##論": 4488,
      "##븡": 4489,
      "##몃": 4490,
      "##췬": 4491,
      "##ㅆ": 4492,
      "##깜": 4493,
      "##쳬": 4494,
      "##뭉": 4495,
      "##넜": 4496,
      "##높": 4497,
      "##깟": 4498,
      "##水": 4499,
      "##末": 4500,
      "##뿜": 4501,
      "##햇": 4502,
      "##멩": 4503,
      "##웟": 4504,
      "##잫": 4505,
      "##윗": 4506,
      "##푹": 4507,
      "##꽃": 4508,
      "##챤": 4509,
      "##쒜": 4510,
      "##겈": 4511,
      "##뜬": 4512,
      "##숱": 4513,
      "##氣": 4514,
      "##꼐": 4515,
      "##툼": 4516,
      "##췌": 4517,
      "##긱": 4518,
      "##뜰": 4519,
      "##텁": 4520,
      "##렀": 4521,
      "##똑": 4522,
      "##쟎": 4523,
      "##엌": 4524,
      "##뎃": 4525,
      "##탬": 4526,
      "##딘": 4527,
      "##삿": 4528,
      "##뺴": 4529,
      "##쎌": 4530,
      "##샨": 4531,
      "##맆": 4532,
      "##읏": 4533,
      "##얗": 4534,
      "##늰": 4535,
      "##萬": 4536,
      "##둡": 4537,
      "##둘": 4538,
      "##벝": 4539,
      "##찜": 4540,
      "##잌": 4541,
      "##갠": 4542,
      "##꺅": 4543,
      "##욌": 4544,
      "##숴": 4545,
      "##솜": 4546,
      "##뱃": 4547,
      "##벼": 4548,
      "##끕": 4549,
      "##팟": 4550,
      "##벹": 4551,
      "##望": 4552,
      "##홉": 4553,
      "##녓": 4554,
      "##톨": 4555,
      "##숀": 4556,
      "##씌": 4557,
      "##녜": 4558,
      "##넉": 4559,
      "##チ": 4560,
      "##ョ": 4561,
      "##パ": 4562,
      "##リ": 4563,
      "##の": 4564,
      "##エ": 4565,
      "##ロ": 4566,
      "##왑": 4567,
      "##삽": 4568,
      "##덷": 4569,
      "##뫼": 4570,
      "##납": 4571,
      "##첩": 4572,
      "##둑": 4573,
      "##릉": 4574,
      "##닭": 4575,
      "##윔": 4576,
      "##둦": 4577,
      "##핡": 4578,
      "##콤": 4579,
      "##걱": 4580,
      "##읎": 4581,
      "##쨰": 4582,
      "##田": 4583,
      "##彩": 4584,
      "##也": 4585,
      "##香": 4586,
      "##좔": 4587,
      "##팻": 4588,
      "##윱": 4589,
      "##잏": 4590,
      "##뭔": 4591,
      "##셕": 4592,
      "##벵": 4593,
      "##뜸": 4594,
      "##꿍": 4595,
      "##샣": 4596,
      "##캉": 4597,
      "##늉": 4598,
      "##갇": 4599,
      "##졔": 4600,
      "##善": 4601,
      "##者": 4602,
      "##뮬": 4603,
      "##캄": 4604,
      "##色": 4605,
      "##갱": 4606,
      "##핼": 4607,
      "##○": 4608,
      "##띨": 4609,
      "##많": 4610,
      "##잦": 4611,
      "##낸": 4612,
      "##즐": 4613,
      "##쫌": 4614,
      "##낮": 4615,
      "##됨": 4616,
      "##웰": 4617,
      "##☜": 4618,
      "##샛": 4619,
      "##쎼": 4620,
      "##늣": 4621,
      "##ㅔ": 4622,
      "##쉴": 4623,
      "##딍": 4624,
      "##봑": 4625,
      "##윳": 4626,
      "##쭙": 4627,
      "##峽": 4628,
      "##츰": 4629,
      "##컴": 4630,
      "##찔": 4631,
      "##괄": 4632,
      "##넴": 4633,
      "##펏": 4634,
      "##뵛": 4635,
      "##댜": 4636,
      "##갓": 4637,
      "##ら": 4638,
      "##け": 4639,
      "##컵": 4640,
      "##쥣": 4641,
      "##性": 4642,
      "##生": 4643,
      "##殖": 4644,
      "##器": 4645,
      "##핮": 4646,
      "##및": 4647,
      "##툰": 4648,
      "##핯": 4649,
      "##갚": 4650,
      "##섞": 4651,
      "##햏": 4652,
      "##쇅": 4653,
      "##닁": 4654,
      "##쭝": 4655,
      "##웍": 4656,
      "##쓔": 4657,
      "##日": 4658,
      "##셧": 4659,
      "##쌉": 4660,
      "##飛": 4661,
      "##刀": 4662,
      "##솝": 4663,
      "##솟": 4664,
      "##텀": 4665,
      "##돜": 4666,
      "##혖": 4667,
      "##紅": 4668,
      "##塵": 4669,
      "##グ": 4670,
      "##ワ": 4671,
      "##ヨ": 4672,
      "##ル": 4673,
      "##シ": 4674,
      "##ム": 4675,
      "##ヒ": 4676,
      "##ま": 4677,
      "##듸": 4678,
      "##믓": 4679,
      "##츈": 4680,
      "##쯧": 4681,
      "##녔": 4682,
      "##헷": 4683,
      "##똥": 4684,
      "##툥": 4685,
      "##틑": 4686,
      "##깅": 4687,
      "##궄": 4688,
      "##낱": 4689,
      "##끝": 4690,
      "##렘": 4691,
      "##뫙": 4692,
      "##곘": 4693,
      "##갗": 4694,
      "##롸": 4695,
      "##뺑": 4696,
      "##핏": 4697,
      "##닻": 4698,
      "##팜": 4699,
      "##떙": 4700,
      "##몹": 4701,
      "##귝": 4702,
      "##뻥": 4703,
      "##立": 4704,
      "##◀": 4705,
      "##둠": 4706,
      "##쉅": 4707,
      "##♩": 4708,
      "##☞": 4709,
      "##힛": 4710,
      "##뻑": 4711,
      "##て": 4712,
      "##킄": 4713,
      "##싄": 4714,
      "##쭁": 4715,
      "##쏠": 4716,
      "##냨": 4717,
      "##멓": 4718,
      "##쿰": 4719,
      "##뢈": 4720,
      "##짘": 4721,
      "##켕": 4722,
      "##왓": 4723,
      "##닊": 4724,
      "##봨": 4725,
      "##콬": 4726,
      "##렄": 4727,
      "##썬": 4728,
      "##벸": 4729,
      "##낔": 4730,
      "##큭": 4731,
      "##白": 4732,
      "##쑈": 4733,
      "##ㅑ": 4734,
      "##常": 4735,
      "##밖": 4736,
      "##둬": 4737,
      "##律": 4738,
      "##졷": 4739,
      "##넀": 4740,
      "##빝": 4741,
      "##냈": 4742,
      "##る": 4743,
      "##よ": 4744,
      "##り": 4745,
      "##뽜": 4746,
      "##떵": 4747,
      "##컹": 4748,
      "##욀": 4749,
      "##뎌": 4750,
      "##벗": 4751,
      "##늡": 4752,
      "##찻": 4753,
      "##쩡": 4754,
      "##떴": 4755,
      "##욜": 4756,
      "##륫": 4757,
      "##훡": 4758,
      "##썌": 4759,
      "##밝": 4760,
      "##뫃": 4761,
      "##뎜": 4762,
      "##쩖": 4763,
      "##헹": 4764,
      "##몇": 4765,
      "##맙": 4766,
      "##붐": 4767,
      "##첵": 4768,
      "##된": 4769,
      "##쐈": 4770,
      "##솀": 4771,
      "##굼": 4772,
      "##흉": 4773,
      "##삤": 4774,
      "##넨": 4775,
      "##졉": 4776,
      "##に": 4777,
      "##썼": 4778,
      "##숩": 4779,
      "##も": 4780,
      "##ひ": 4781,
      "##ぽ": 4782,
      "##ろ": 4783,
      "##엡": 4784,
      "##씰": 4785,
      "##쩐": 4786,
      "##핦": 4787,
      "##렝": 4788,
      "##숫": 4789,
      "##눔": 4790,
      "##뇾": 4791,
      "##녹": 4792,
      "##쓴": 4793,
      "##끙": 4794,
      "##꼈": 4795,
      "##맡": 4796,
      "##츨": 4797,
      "##냔": 4798,
      "##웄": 4799,
      "##셩": 4800,
      "##욘": 4801,
      "##∀": 4802,
      "##닳": 4803,
      "##쌕": 4804,
      "##풋": 4805,
      "##빔": 4806,
      "##뢍": 4807,
      "##끆": 4808,
      "##뎡": 4809,
      "##댰": 4810,
      "##솨": 4811,
      "##롁": 4812,
      "##뀌": 4813,
      "##力": 4814,
      "##킁": 4815,
      "##녘": 4816,
      "##씪": 4817,
      "##믿": 4818,
      "##썅": 4819,
      "##젯": 4820,
      "##쉣": 4821,
      "##쒯": 4822,
      "##럈": 4823,
      "##탤": 4824,
      "##ㄸ": 4825,
      "##꽂": 4826,
      "##귯": 4827,
      "##륨": 4828,
      "##꼼": 4829,
      "##듭": 4830,
      "##·": 4831,
      "##늗": 4832,
      "##쉭": 4833,
      "##だ": 4834,
      "##뉘": 4835,
      "##왁": 4836,
      "##쟌": 4837,
      "##슼": 4838,
      "##ㅚ": 4839,
      "##땍": 4840,
      "##훤": 4841,
      "##쩨": 4842,
      "##눼": 4843,
      "##팠": 4844,
      "##줬": 4845,
      "##셐": 4846,
      "##찾": 4847,
      "##샥": 4848,
      "##넣": 4849,
      "##귄": 4850,
      "##땐": 4851,
      "##は": 4852,
      "##퍠": 4853,
      "##쓱": 4854,
      "##엮": 4855,
      "##옮": 4856,
      "##衛": 4857,
      "##띄": 4858,
      "##랖": 4859,
      "##쟤": 4860,
      "##쌩": 4861,
      "##뽁": 4862,
      "##늦": 4863,
      "##릎": 4864,
      "##닠": 4865,
      "##짠": 4866,
      "##옇": 4867,
      "##퉽": 4868,
      "##멐": 4869,
      "##뵜": 4870,
      "##찹": 4871,
      "##싫": 4872,
      "##켬": 4873,
      "##폄": 4874,
      "##덟": 4875,
      "##맠": 4876,
      "##썹": 4877,
      "##랗": 4878,
      "##캡": 4879,
      "##뗴": 4880,
      "##킈": 4881,
      "##힙": 4882,
      "##쓹": 4883,
      "##샼": 4884,
      "##곀": 4885,
      "##졍": 4886,
      "##펫": 4887,
      "##꾿": 4888,
      "##덨": 4889,
      "##놉": 4890,
      "##슌": 4891,
      "##덯": 4892,
      "##쎈": 4893,
      "##쮸": 4894,
      "##썜": 4895,
      "##믜": 4896,
      "##싴": 4897,
      "##師": 4898,
      "##맺": 4899,
      "##셥": 4900,
      "##졀": 4901,
      "##傑": 4902,
      "##侖": 4903,
      "##쩝": 4904,
      "##됐": 4905,
      "##썪": 4906,
      "##퀼": 4907,
      "##옄": 4908,
      "##쳣": 4909,
      "##될": 4910,
      "##왤": 4911,
      "##뢀": 4912,
      "##캇": 4913,
      "##か": 4914,
      "##っ": 4915,
      "##꿋": 4916,
      "##겅": 4917,
      "##좡": 4918,
      "##똔": 4919,
      "##띈": 4920,
      "##곃": 4921,
      "##쌀": 4922,
      "##콧": 4923,
      "##햣": 4924,
      "##닙": 4925,
      "##쨈": 4926,
      "##母": 4927,
      "##男": 4928,
      "##켐": 4929,
      "##냌": 4930,
      "##릋": 4931,
      "##탭": 4932,
      "##뒤": 4933,
      "##ㄶ": 4934,
      "##썻": 4935,
      "##뱍": 4936,
      "##꽦": 4937,
      "##꽥": 4938,
      "##쳇": 4939,
      "##숰": 4940,
      "##뱔": 4941,
      "##융": 4942,
      "##냅": 4943,
      "##꾹": 4944,
      "##냬": 4945,
      "##굣": 4946,
      "##싖": 4947,
      "##괘": 4948,
      "##쳫": 4949,
      "##빋": 4950,
      "##랔": 4951,
      "##됻": 4952,
      "##랒": 4953,
      "##뜍": 4954,
      "##옿": 4955,
      "##퐛": 4956,
      "##쏴": 4957,
      "##섁": 4958,
      "##쓉": 4959,
      "##첬": 4960,
      "##둗": 4961,
      "##쌰": 4962,
      "##핍": 4963,
      "##밷": 4964,
      "##빤": 4965,
      "##탸": 4966,
      "##롹": 4967,
      "##궐": 4968,
      "##쥭": 4969,
      "##꺠": 4970,
      "##찿": 4971,
      "##횡": 4972,
      "##뫄": 4973,
      "##눕": 4974,
      "##ㅞ": 4975,
      "##典": 4976,
      "##밬": 4977,
      "##떽": 4978,
      "##짲": 4979,
      "##덧": 4980,
      "##랠": 4981,
      "##돔": 4982,
      "##숲": 4983,
      "##뜷": 4984,
      "##꺾": 4985,
      "##낫": 4986,
      "##쎠": 4987,
      "##뱌": 4988,
      "##밈": 4989,
      "##츤": 4990,
      "##꽉": 4991,
      "##♨": 4992,
      "##끾": 4993,
      "##끽": 4994,
      "##カ": 4995,
      "##ピ": 4996,
      "##ㅢ": 4997,
      "##꽄": 4998,
      "##？": 4999,
      "##좝": 5000,
      "##맴": 5001,
      "##폿": 5002,
      "##홓": 5003,
      "##킵": 5004,
      "##댓": 5005,
      "##룔": 5006,
      "##팁": 5007,
      "##젖": 5008,
      "##몀": 5009,
      "##읔": 5010,
      "##렜": 5011,
      "##빳": 5012,
      "##푀": 5013,
      "##씩": 5014,
      "##틋": 5015,
      "##껭": 5016,
      "##닽": 5017,
      "##툴": 5018,
      "##볕": 5019,
      "##ノ": 5020,
      "##ビ": 5021,
      "##쫄": 5022,
      "##뵤": 5023,
      "##핟": 5024,
      "##뎍": 5025,
      "##됌": 5026,
      "##갉": 5027,
      "##꺙": 5028,
      "##꾱": 5029,
      "##랽": 5030,
      "##룕": 5031,
      "##뷁": 5032,
      "##車": 5033,
      "##띰": 5034,
      "##밨": 5035,
      "##핥": 5036,
      "##ㄳ": 5037,
      "##슥": 5038,
      "##걷": 5039,
      "##삶": 5040,
      "##튭": 5041,
      "##쾡": 5042,
      "##ㅒ": 5043,
      "##칩": 5044,
      "##짇": 5045,
      "##ベ": 5046,
      "##팰": 5047,
      "##짢": 5048,
      "##앞": 5049,
      "##꼇": 5050,
      "##댈": 5051,
      "##싼": 5052,
      "##끅": 5053,
      "##껀": 5054,
      "##댇": 5055,
      "##ㅄ": 5056,
      "##컾": 5057,
      "##害": 5058,
      "##無": 5059,
      "##益": 5060,
      "##셴": 5061,
      "##¿": 5062,
      "##型": 5063,
      "##휙": 5064,
      "##옜": 5065,
      "##톰": 5066,
      "##룰": 5067,
      "##숏": 5068,
      "##돗": 5069,
      "##춧": 5070,
      "##本": 5071,
      "##映": 5072,
      "##뽈": 5073,
      "##쏩": 5074,
      "##톼": 5075,
      "##줗": 5076,
      "##헀": 5077,
      "##넸": 5078,
      "##꽈": 5079,
      "##腸": 5080,
      "##슫": 5081,
      "##몫": 5082,
      "##쐉": 5083,
      "##굷": 5084,
      "##팸": 5085,
      "##틍": 5086,
      "##춌": 5087,
      "##딫": 5088,
      "##→": 5089,
      "##롷": 5090,
      "##味": 5091,
      "##れ": 5092,
      "##つ": 5093,
      "##웁": 5094,
      "##먠": 5095,
      "##삔": 5096,
      "##뵹": 5097,
      "##史": 5098,
      "##돵": 5099,
      "##됩": 5100,
      "##굯": 5101,
      "##빽": 5102,
      "##⊙": 5103,
      "##봏": 5104,
      "##뀨": 5105,
      "##놃": 5106,
      "##팥": 5107,
      "##죙": 5108,
      "##핧": 5109,
      "##쫙": 5110,
      "##林": 5111,
      "##괭": 5112,
      "##쉥": 5113,
      "##쫀": 5114,
      "##렿": 5115,
      "##찝": 5116,
      "##눅": 5117,
      "##쩧": 5118,
      "##÷": 5119,
      "##홋": 5120,
      "##넓": 5121,
      "##잊": 5122,
      "##똠": 5123,
      "##옙": 5124,
      "##섳": 5125,
      "##멌": 5126,
      "##덮": 5127,
      "##퐉": 5128,
      "##퇄": 5129,
      "##뽄": 5130,
      "##넫": 5131,
      "##뻘": 5132,
      "##뿰": 5133,
      "##木": 5134,
      "##慶": 5135,
      "##一": 5136,
      "##릳": 5137,
      "##긛": 5138,
      "##밟": 5139,
      "##촤": 5140,
      "##感": 5141,
      "##얏": 5142,
      "##뀰": 5143,
      "##컼": 5144,
      "##쌓": 5145,
      "##뻤": 5146,
      "##웹": 5147,
      "##쭐": 5148,
      "##춬": 5149,
      "##늙": 5150,
      "##촐": 5151,
      "##덱": 5152,
      "##祖": 5153,
      "##괜": 5154,
      "##헥": 5155,
      "##솓": 5156,
      "##쫑": 5157,
      "##젋": 5158,
      "##칵": 5159,
      "##땸": 5160,
      "##앸": 5161,
      "##わ": 5162,
      "##볔": 5163,
      "##■": 5164,
      "##숍": 5165,
      "##펌": 5166,
      "##火": 5167,
      "##待": 5168,
      "##앋": 5169,
      "##뿍": 5170,
      "##젝": 5171,
      "##딤": 5172,
      "##섶": 5173,
      "##쫓": 5174,
      "##●": 5175,
      "##텉": 5176,
      "##쪈": 5177,
      "##韓": 5178,
      "##派": 5179,
      "##듵": 5180,
      "##듴": 5181,
      "##ね": 5182,
      "##ん": 5183,
      "##う": 5184,
      "##뒈": 5185,
      "##쩃": 5186,
      "##젅": 5187,
      "##맖": 5188,
      "##쥘": 5189,
      "##휏": 5190,
      "##쨌": 5191,
      "##돤": 5192,
      "##횬": 5193,
      "##킌": 5194,
      "##좠": 5195,
      "##쎘": 5196,
      "##↓": 5197,
      "##뼛": 5198,
      "##엪": 5199,
      "##좐": 5200,
      "##춸": 5201,
      "##됄": 5202,
      "##헸": 5203,
      "##띤": 5204,
      "##맑": 5205,
      "##땈": 5206,
      "##定": 5207,
      "##離": 5208,
      "##画": 5209,
      "##＾": 5210,
      "##궂": 5211,
      "##섿": 5212,
      "##슾": 5213,
      "##벡": 5214,
      "##읹": 5215,
      "##좆": 5216,
      "##깍": 5217,
      "##눊": 5218,
      "##쟞": 5219,
      "##홨": 5220,
      "##法": 5221,
      "##쫭": 5222,
      "##찟": 5223,
      "##봗": 5224,
      "##젆": 5225,
      "##쑬": 5226,
      "##맟": 5227,
      "##⌒": 5228,
      "##샊": 5229,
      "##깠": 5230,
      "##갘": 5231,
      "##귘": 5232,
      "##뗵": 5233,
      "##낯": 5234,
      "##냑": 5235,
      "##맂": 5236,
      "##륒": 5237,
      "##ㅖ": 5238,
      "##뱉": 5239,
      "##좁": 5240,
      "##깎": 5241,
      "##텡": 5242,
      "##쾨": 5243,
      "##흌": 5244,
      "##깞": 5245,
      "##슘": 5246,
      "##륰": 5247,
      "##쎔": 5248,
      "##自": 5249,
      "##慰": 5250,
      "##귬": 5251,
      "##깥": 5252,
      "##챔": 5253,
      "##믺": 5254,
      "##뽑": 5255,
      "##닦": 5256,
      "##죨": 5257,
      "##깈": 5258,
      "##멤": 5259,
      "##子": 5260,
      "##緣": 5261,
      "##댬": 5262,
      "##읶": 5263,
      "##얶": 5264,
      "##ⓞ": 5265,
      "##ⓛ": 5266,
      "##꿇": 5267,
      "##튠": 5268,
      "##꿧": 5269,
      "##놘": 5270,
      "##슭": 5271,
      "##넖": 5272,
      "##人": 5273,
      "##쭊": 5274,
      "##춋": 5275,
      "##훃": 5276,
      "##뷸": 5277,
      "##딨": 5278,
      "##닏": 5279,
      "##苦": 5280,
      "##캴": 5281,
      "##쑥": 5282,
      "##멱": 5283,
      "##꿘": 5284,
      "##얐": 5285,
      "##ダ": 5286,
      "##쫘": 5287,
      "##휼": 5288,
      "##記": 5289,
      "##븟": 5290,
      "##숟": 5291,
      "##핛": 5292,
      "##닟": 5293,
      "##탗": 5294,
      "##썁": 5295,
      "##럔": 5296,
      "##냊": 5297,
      "##먈": 5298,
      "##듦": 5299,
      "##섺": 5300,
      "##얹": 5301,
      "##띀": 5302,
      "##탆": 5303,
      "##훅": 5304,
      "##え": 5305,
      "##묭": 5306,
      "##멕": 5307,
      "##떳": 5308,
      "##뭨": 5309,
      "##즙": 5310,
      "##튬": 5311,
      "##휸": 5312,
      "##굉": 5313,
      "##츳": 5314,
      "##뽐": 5315,
      "##쑝": 5316,
      "##컫": 5317,
      "##읃": 5318,
      "##봙": 5319,
      "##놧": 5320,
      "##랃": 5321,
      "##뚬": 5322,
      "##셤": 5323,
      "##엢": 5324,
      "##庭": 5325,
      "##話": 5326,
      "##ⁿ": 5327,
      "##귿": 5328,
      "##홐": 5329,
      "##ㄺ": 5330,
      "##윀": 5331,
      "##뺨": 5332,
      "##좍": 5333,
      "##봘": 5334,
      "##쥰": 5335,
      "##쀼": 5336,
      "##뮨": 5337,
      "##쬐": 5338,
      "##뤡": 5339,
      "##싲": 5340,
      "##빻": 5341,
      "##졈": 5342,
      "##걀": 5343,
      "##곅": 5344,
      "##땋": 5345,
      "##냇": 5346,
      "##心": 5347,
      "##묨": 5348,
      "##쀨": 5349,
      "##꼮": 5350,
      "##뤰": 5351,
      "##튿": 5352,
      "##讐": 5353,
      "##情": 5354,
      "##¨": 5355,
      "##붆": 5356,
      "##쥔": 5357,
      "##빢": 5358,
      "##끊": 5359,
      "##됭": 5360,
      "##젹": 5361,
      "##젛": 5362,
      "##줸": 5363,
      "##惡": 5364,
      "##낳": 5365,
      "##퓽": 5366,
      "##앍": 5367,
      "##륄": 5368,
      "##겸": 5369,
      "##댁": 5370,
      "##슁": 5371,
      "##要": 5372,
      "##紙": 5373,
      "##밐": 5374,
      "##삥": 5375,
      "##張": 5376,
      "##괨": 5377,
      "##핱": 5378,
      "##졓": 5379,
      "##앚": 5380,
      "##멬": 5381,
      "##ミ": 5382,
      "##둿": 5383,
      "##↑": 5384,
      "##꿐": 5385,
      "##왛": 5386,
      "##ⅱ": 5387,
      "##ⅲ": 5388,
      "##줔": 5389,
      "##붸": 5390,
      "##딷": 5391,
      "##롄": 5392,
      "##뚯": 5393,
      "##궜": 5394,
      "##ㅀ": 5395,
      "##演": 5396,
      "##펐": 5397,
      "##텈": 5398,
      "##ト": 5399,
      "##霆": 5400,
      "##鋒": 5401,
      "##잰": 5402,
      "##놕": 5403,
      "##깩": 5404,
      "##옂": 5405,
      "##꾜": 5406,
      "##‥": 5407,
      "##죻": 5408,
      "##遠": 5409,
      "##홪": 5410,
      "##꼅": 5411,
      "##컁": 5412,
      "##部": 5413,
      "##뗑": 5414,
      "##헣": 5415,
      "##▷": 5416,
      "##◁": 5417,
      "##▽": 5418,
      "##△": 5419,
      "##□": 5420,
      "##꼿": 5421,
      "##펭": 5422,
      "##臭": 5423,
      "##낏": 5424,
      "##꼰": 5425,
      "##켔": 5426,
      "##옆": 5427,
      "##냘": 5428,
      "##옰": 5429,
      "##곻": 5430,
      "##쉒": 5431,
      "##쳔": 5432,
      "##옶": 5433,
      "##흨": 5434,
      "##慧": 5435,
      "##쭛": 5436,
      "##닺": 5437,
      "##畵": 5438,
      "##챙": 5439,
      "##졐": 5440,
      "이다": 5441,
      "영화": 5442,
      "보다": 5443,
      "하다": 5444,
      "##하다": 5445,
      "##니다": 5446,
      "있다": 5447,
      "없다": 5448,
      "##ㅋㅋ": 5449,
      "어서": 5450,
      "##리다": 5451,
      "좋다": 5452,
      "너무": 5453,
      "재미": 5454,
      "는데": 5455,
      "ᆫ다": 5456,
      "주다": 5457,
      "어요": 5458,
      "정말": 5459,
      "으로": 5460,
      "되다": 5461,
      "##들다": 5462,
      "재밌": 5463,
      "재밌다": 5464,
      "네요": 5465,
      "연기": 5466,
      "같다": 5467,
      "진짜": 5468,
      "지만": 5469,
      "에서": 5470,
      "##오다": 5471,
      "않다": 5472,
      "만들다": 5473,
      "아니다": 5474,
      "##르다": 5475,
      "##지다": 5476,
      "나오다": 5477,
      "ᆸ니다": 5478,
      "최고": 5479,
      "평점": 5480,
      "##이다": 5481,
      "이거": 5482,
      "생각": 5483,
      "이런": 5484,
      "##나다": 5485,
      "나다": 5486,
      "습니다": 5487,
      "##토리": 5488,
      "스토리": 5489,
      "드라": 5490,
      "##렇다": 5491,
      "어도": 5492,
      "드라마": 5493,
      "가다": 5494,
      "##깝다": 5495,
      "##기다": 5496,
      "싶다": 5497,
      "사람": 5498,
      "지다": 5499,
      "##없다": 5500,
      "배우": 5501,
      "감동": 5502,
      "까지": 5503,
      "ㅋㅋㅋ": 5504,
      "어야": 5505,
      "##있다": 5506,
      "아깝다": 5507,
      "ᆫ데": 5508,
      "ᆫ가": 5509,
      "지루": 5510,
      "내용": 5511,
      "ㅋㅋ": 5512,
      "감독": 5513,
      "알다": 5514,
      "그냥": 5515,
      "10": 5516,
      "시간": 5517,
      "재미있다": 5518,
      "말다": 5519,
      "##치다": 5520,
      "ᆫ지": 5521,
      "##레기": 5522,
      "쓰레기": 5523,
      "사랑": 5524,
      "재미없다": 5525,
      "라고": 5526,
      "다시": 5527,
      "모르다": 5528,
      "으면": 5529,
      "면서": 5530,
      "보이다": 5531,
      "작품": 5532,
      "이것": 5533,
      "그렇다": 5534,
      "##ㅋㅋㅋㅋ": 5535,
      "ㅠㅠ": 5536,
      "하나": 5537,
      "##프다": 5538,
      "##지막": 5539,
      "정도": 5540,
      "액션": 5541,
      "마지막": 5542,
      "기대": 5543,
      "완전": 5544,
      "##끼다": 5545,
      "라는": 5546,
      "이야": 5547,
      "##가다": 5548,
      "어라": 5549,
      "다는": 5550,
      "다가": 5551,
      "##쁘다": 5552,
      "스럽": 5553,
      "많다": 5554,
      "처음": 5555,
      "느끼다": 5556,
      "장면": 5557,
      "에게": 5558,
      "지금": 5559,
      "##인공": 5560,
      "들다": 5561,
      "오다": 5562,
      "한국": 5563,
      "최악": 5564,
      "그리": 5565,
      "쓰다": 5566,
      "이야기": 5567,
      "별로": 5568,
      "느낌": 5569,
      "연출": 5570,
      "이상": 5571,
      "이해": 5572,
      "다고": 5573,
      "이렇다": 5574,
      "여자": 5575,
      "우리": 5576,
      "ㅎㅎ": 5577,
      "부터": 5578,
      "명작": 5579,
      "아이": 5580,
      "역시": 5581,
      "남다": 5582,
      "그리고": 5583,
      "많이": 5584,
      "기억": 5585,
      "ㅡㅡ": 5586,
      "주인공": 5587,
      "##찮다": 5588,
      "는지": 5589,
      "웃기다": 5590,
      "괜찮다": 5591,
      "ᆯ까": 5592,
      "받다": 5593,
      "버리다": 5594,
      "때문": 5595,
      "좋아": 5596,
      "좋아하다": 5597,
      "대하다": 5598,
      "아름": 5599,
      "공포": 5600,
      "이나": 5601,
      "세요": 5602,
      "마음": 5603,
      "현실": 5604,
      "그래": 5605,
      "##답다": 5606,
      "##럽다": 5607,
      "아름답다": 5608,
      "oo": 5609,
      "무슨": 5610,
      "살다": 5611,
      "은데": 5612,
      "인생": 5613,
      "내내": 5614,
      "유치": 5615,
      "내다": 5616,
      "남자": 5617,
      "결말": 5618,
      "일본": 5619,
      "아무": 5620,
      "죽다": 5621,
      "##어지다": 5622,
      "전개": 5623,
      "아쉽": 5624,
      "짜증": 5625,
      "아쉽다": 5626,
      "소재": 5627,
      "못하다": 5628,
      "##섭다": 5629,
      "무섭다": 5630,
      "없이": 5631,
      "어리다": 5632,
      "반전": 5633,
      "필요": 5634,
      "##대로": 5635,
      "이제": 5636,
      "수준": 5637,
      "눈물": 5638,
      "몰입": 5639,
      "스릴": 5640,
      "맞다": 5641,
      "을까": 5642,
      "음악": 5643,
      "지루하다": 5644,
      "##내다": 5645,
      "가슴": 5646,
      "20": 5647,
      "매력": 5648,
      "##우다": 5649,
      "가장": 5650,
      "낮다": 5651,
      "멋지다": 5652,
      "인간": 5653,
      "슬프다": 5654,
      "높다": 5655,
      "영상": 5656,
      "원작": 5657,
      "다니": 5658,
      "치다": 5659,
      "는다": 5660,
      "그런": 5661,
      "극장": 5662,
      "위하다": 5663,
      "애니": 5664,
      "다른": 5665,
      "울다": 5666,
      "##히다": 5667,
      "코미": 5668,
      "솔직": 5669,
      "코미디": 5670,
      "놓다": 5671,
      "추천": 5672,
      "어떻": 5673,
      "끝나다": 5674,
      "더라": 5675,
      "실망": 5676,
      "아직": 5677,
      "모든": 5678,
      "찍다": 5679,
      "자체": 5680,
      "누구": 5681,
      "억지": 5682,
      "처럼": 5683,
      "크다": 5684,
      "##렇게": 5685,
      "캐릭": 5686,
      "##리즈": 5687,
      "개봉": 5688,
      "캐릭터": 5689,
      "모두": 5690,
      "솔직히": 5691,
      "다면": 5692,
      "먹다": 5693,
      "아주": 5694,
      "가족": 5695,
      "ㅋㅋㅋㅋ": 5696,
      "##라다": 5697,
      "엄청": 5698,
      "여운": 5699,
      "연기력": 5700,
      "빠지다": 5701,
      "시리즈": 5702,
      "##추다": 5703,
      "시키": 5704,
      "전혀": 5705,
      "모습": 5706,
      "재밋": 5707,
      "어떻다": 5708,
      "계속": 5709,
      "ㅜㅜ": 5710,
      "공감": 5711,
      "근데": 5712,
      "##엽다": 5713,
      "긴장": 5714,
      "이쁘다": 5715,
      "표현": 5716,
      "귀엽다": 5717,
      "미치다": 5718,
      "##ㅋㅋㅋㅋㅋㅋㅋㅋ": 5719,
      "어디": 5720,
      "밖에": 5721,
      "##어나다": 5722,
      "##러다": 5723,
      "대단": 5724,
      "웃다": 5725,
      "대사": 5726,
      "이렇게": 5727,
      "힘들다": 5728,
      "낫다": 5729,
      "부분": 5730,
      "었었": 5731,
      "이랑": 5732,
      "##스터": 5733,
      "제목": 5734,
      "ᆫ다는": 5735,
      "기분": 5736,
      "진심": 5737,
      "##ㅠㅠ": 5738,
      "중간": 5739,
      "라도": 5740,
      "##지만": 5741,
      "작가": 5742,
      "찾다": 5743,
      "흥미": 5744,
      "##메이": 5745,
      "스릴러": 5746,
      "잔잔": 5747,
      "막장": 5748,
      "다르다": 5749,
      "알바": 5750,
      "##수록": 5751,
      "어이": 5752,
      "조금": 5753,
      "여주": 5754,
      "요즘": 5755,
      "친구": 5756,
      "한테": 5757,
      "구나": 5758,
      "##스트": 5759,
      "떨어지다": 5760,
      "라면": 5761,
      "정신": 5762,
      "제작": 5763,
      "죽이다": 5764,
      "가지다": 5765,
      "잇다": 5766,
      "점수": 5767,
      "개인": 5768,
      "##겁다": 5769,
      "노래": 5770,
      "이유": 5771,
      "긴장감": 5772,
      "##보다": 5773,
      "믿다": 5774,
      "시작": 5775,
      "특히": 5776,
      "부족": 5777,
      "만큼": 5778,
      "시대": 5779,
      "오랜": 5780,
      "제대로": 5781,
      "의미": 5782,
      "나름": 5783,
      "##라리": 5784,
      "니까": 5785,
      "당시": 5786,
      "에요": 5787,
      "예쁘다": 5788,
      "나라": 5789,
      "세상": 5790,
      "미국": 5791,
      "차라리": 5792,
      "같이": 5793,
      "스타": 5794,
      "싫다": 5795,
      "빼다": 5796,
      "오랜만": 5797,
      "만화": 5798,
      "듣다": 5799,
      "출연": 5800,
      "그래도": 5801,
      "##리오": 5802,
      "으나": 5803,
      "따뜻": 5804,
      "감정": 5805,
      "절대": 5806,
      "어설": 5807,
      "어설프다": 5808,
      "웃음": 5809,
      "훌륭": 5810,
      "##00": 5811,
      "던데": 5812,
      "로맨": 5813,
      "그것": 5814,
      "강추": 5815,
      "려고": 5816,
      "전쟁": 5817,
      "cg": 5818,
      "어쩌": 5819,
      "답답": 5820,
      "마다": 5821,
      "장난": 5822,
      "##롭다": 5823,
      "너무나": 5824,
      "년대": 5825,
      "시청": 5826,
      "##oo": 5827,
      "무엇": 5828,
      "라니": 5829,
      "##리스": 5830,
      "도대": 5831,
      "##시다": 5832,
      "자다": 5833,
      "도대체": 5834,
      "얼마": 5835,
      "자신": 5836,
      "관객": 5837,
      "언제": 5838,
      "깊다": 5839,
      "설정": 5840,
      "신선": 5841,
      "수작": 5842,
      "행복": 5843,
      "그저": 5844,
      "소리": 5845,
      "초반": 5846,
      "##st": 5847,
      "어야지": 5848,
      "하지만": 5849,
      "엔딩": 5850,
      "tv": 5851,
      "사실": 5852,
      "시나": 5853,
      "나쁘다": 5854,
      "배경": 5855,
      "다큐": 5856,
      "지나다": 5857,
      "문제": 5858,
      "시나리오": 5859,
      "##거리": 5860,
      "아프다": 5861,
      "##스팅": 5862,
      "소름": 5863,
      "어색": 5864,
      "뻔하다": 5865,
      "오늘": 5866,
      "분위": 5867,
      "어쩌다": 5868,
      "추억": 5869,
      "ooo": 5870,
      "분위기": 5871,
      "프로": 5872,
      "##겹다": 5873,
      "시절": 5874,
      "킬링": 5875,
      "나가다": 5876,
      "더럽다": 5877,
      "캐스팅": 5878,
      "역사": 5879,
      "허접": 5880,
      "결국": 5881,
      "졸작": 5882,
      "인상": 5883,
      "구성": 5884,
      "엄마": 5885,
      "남기다": 5886,
      "안타": 5887,
      "함께": 5888,
      "제발": 5889,
      "ᆯ수록": 5890,
      "더니": 5891,
      "완벽": 5892,
      "사다": 5893,
      "아니": 5894,
      "그만": 5895,
      "여기": 5896,
      "주연": 5897,
      "ᆫ다면": 5898,
      "##메이션": 5899,
      "영화관": 5900,
      "어이없다": 5901,
      "안타깝다": 5902,
      "ᆫ다고": 5903,
      "포스터": 5904,
      "##아가다": 5905,
      "아무리": 5906,
      "후회": 5907,
      "제일": 5908,
      "예술": 5909,
      "잊다": 5910,
      "코믹": 5911,
      "타임": 5912,
      "잡다": 5913,
      "어떤": 5914,
      "애니메이션": 5915,
      "오래": 5916,
      "유쾌": 5917,
      "진부": 5918,
      "얼마나": 5919,
      "얘기": 5920,
      "진정": 5921,
      "방송": 5922,
      "##디오": 5923,
      "개연": 5924,
      "으니": 5925,
      "멋있다": 5926,
      "##렵다": 5927,
      "망하다": 5928,
      "길다": 5929,
      "대박": 5930,
      "주제": 5931,
      "##소리": 5932,
      "이리": 5933,
      "더빙": 5934,
      "이름": 5935,
      "만나다": 5936,
      "충격": 5937,
      "드리다": 5938,
      "살리다": 5939,
      "평가": 5940,
      "ㅉㅉ": 5941,
      "끌다": 5942,
      "머리": 5943,
      "어울": 5944,
      "옛날": 5945,
      "어울리다": 5946,
      "동안": 5947,
      "나이": 5948,
      "넘다": 5949,
      "여러": 5950,
      "얼굴": 5951,
      "후반": 5952,
      "##배우": 5953,
      "궁금": 5954,
      "불쌍": 5955,
      "낭비": 5956,
      "나요": 5957,
      "그나": 5958,
      "어느": 5959,
      "잔인": 5960,
      "생기다": 5961,
      "이후": 5962,
      "장르": 5963,
      "라서": 5964,
      "집중": 5965,
      "충분": 5966,
      "티비": 5967,
      "중국": 5968,
      "들어": 5969,
      "끄다": 5970,
      "읽다": 5971,
      "매우": 5972,
      "순수": 5973,
      "새롭다": 5974,
      "즐겁다": 5975,
      "상황": 5976,
      "어렵다": 5977,
      "자기": 5978,
      "하고": 5979,
      "그러다": 5980,
      "다음": 5981,
      "대체": 5982,
      "ost": 5983,
      "시즌": 5984,
      "짜리": 5985,
      "비슷": 5986,
      "ㅎㅎㅎ": 5987,
      "##나라": 5988,
      "##버지": 5989,
      "여주인공": 5990,
      "사회": 5991,
      "상상": 5992,
      "##루다": 5993,
      "비디오": 5994,
      "##당히": 5995,
      "생각나다": 5996,
      "19": 5997,
      "인물": 5998,
      "터지다": 5999,
      "##이버": 6000,
      "걸작": 6001,
      "존나": 6002,
      "감사": 6003,
      "기다": 6004,
      "그리다": 6005,
      "엉성": 6006,
      "참다": 6007,
      "세계": 6008,
      "ᆯ려": 6009,
      "그래서": 6010,
      "약간": 6011,
      "그나마": 6012,
      "ᆯ지": 6013,
      "예전": 6014,
      "로맨스": 6015,
      "려는": 6016,
      "낚이다": 6017,
      "##먹다": 6018,
      "그러": 6019,
      "##꾸다": 6020,
      "그대로": 6021,
      "소설": 6022,
      "ㅋㅋㅋㅋㅋ": 6023,
      "훨씬": 6024,
      "영상미": 6025,
      "전체": 6026,
      "##없이": 6027,
      "비교": 6028,
      "##키다": 6029,
      "길래": 6030,
      "30": 6031,
      "초딩": 6032,
      "##레이": 6033,
      "##타지": 6034,
      "바라다": 6035,
      "네이버": 6036,
      "만점": 6037,
      "대단하다": 6038,
      "굉장": 6039,
      "단순": 6040,
      "비하다": 6041,
      "감성": 6042,
      "몰입도": 6043,
      "구만": 6044,
      "혼자": 6045,
      "돌리다": 6046,
      "아들": 6047,
      "바로": 6048,
      "이미": 6049,
      "##아보다": 6050,
      "ㄷㄷ": 6051,
      "가치": 6052,
      "여배우": 6053,
      "100": 6054,
      "평론": 6055,
      "기에": 6056,
      "##자기": 6057,
      "떠나다": 6058,
      "보고": 6059,
      "순간": 6060,
      "##주다": 6061,
      "등장": 6062,
      "으면서": 6063,
      "넘치다": 6064,
      "이하": 6065,
      "자연": 6066,
      "심하다": 6067,
      "올리다": 6068,
      "그거": 6069,
      "빨리": 6070,
      "화려": 6071,
      "##니까": 6072,
      "망치다": 6073,
      "사이": 6074,
      "성룡": 6075,
      "##ood": 6076,
      "이러다": 6077,
      "다운": 6078,
      "삼류": 6079,
      "가능": 6080,
      "는가": 6081,
      "당신": 6082,
      "두다": 6083,
      "멜로": 6084,
      "목소리": 6085,
      "쩔다": 6086,
      "존재": 6087,
      "따르다": 6088,
      "판타지": 6089,
      "기다리다": 6090,
      "교훈": 6091,
      "별점": 6092,
      "개그": 6093,
      "케이": 6094,
      "엄청나다": 6095,
      "쉽다": 6096,
      "실화": 6097,
      "놀라다": 6098,
      "돋다": 6099,
      "평론가": 6100,
      "허무": 6101,
      "good": 6102,
      "질질": 6103,
      "마이": 6104,
      "각본": 6105,
      "독특": 6106,
      "잘못": 6107,
      "전부": 6108,
      "상영": 6109,
      "어른": 6110,
      "##타임": 6111,
      "##라이": 6112,
      "90": 6113,
      "관람": 6114,
      "##연히": 6115,
      "스타일": 6116,
      "가볍": 6117,
      "군요": 6118,
      "상당히": 6119,
      "##er": 6120,
      "가볍다": 6121,
      "살인": 6122,
      "아버지": 6123,
      "거의": 6124,
      "##머니": 6125,
      "대로": 6126,
      "똑같": 6127,
      "##등학": 6128,
      "줄거리": 6129,
      "대다": 6130,
      "부르다": 6131,
      "실제": 6132,
      "맞추다": 6133,
      "우리나라": 6134,
      "노잼": 6135,
      "201": 6136,
      "sf": 6137,
      "킬링타임": 6138,
      "##다가": 6139,
      "넣다": 6140,
      "잖아": 6141,
      "간만": 6142,
      "당하다": 6143,
      "ㅋㅋㅋㅋㅋㅋㅋㅋㅋㅋㅋ": 6144,
      "굉장히": 6145,
      "예상": 6146,
      "200": 6147,
      "##이팅": 6148,
      "복수": 6149,
      "이번": 6150,
      "##보이다": 6151,
      "거리": 6152,
      "갑자기": 6153,
      "바꾸다": 6154,
      "에로": 6155,
      "ㅋㅋㅋㅋㅋㅋㅋ": 6156,
      "그러나": 6157,
      "요소": 6158,
      "지나": 6159,
      "의도": 6160,
      "타다": 6161,
      "화면": 6162,
      "##♥♥": 6163,
      "중요": 6164,
      "보내다": 6165,
      "그녀": 6166,
      "##끄럽다": 6167,
      "ᆫ가요": 6168,
      "뜨다": 6169,
      "아빠": 6170,
      "거나": 6171,
      "##랍다": 6172,
      "놀랍다": 6173,
      "더욱": 6174,
      "항상": 6175,
      "예고": 6176,
      "이란": 6177,
      "확실": 6178,
      "선택": 6179,
      "프랑": 6180,
      "##노잼": 6181,
      "가지": 6182,
      "흥행": 6183,
      "##주의": 6184,
      "조차": 6185,
      "달다": 6186,
      "불편": 6187,
      "댓글": 6188,
      "만족": 6189,
      "탄탄": 6190,
      "평범": 6191,
      "학교": 6192,
      "진행": 6193,
      "거기": 6194,
      "일단": 6195,
      "저런": 6196,
      "크리스": 6197,
      "통하다": 6198,
      "간만에": 6199,
      "흐르다": 6200,
      "예요": 6201,
      "갖다": 6202,
      "관계": 6203,
      "완성": 6204,
      "던가": 6205,
      "즐기다": 6206,
      "편집": 6207,
      "범죄": 6208,
      "잃다": 6209,
      "프랑스": 6210,
      "점점": 6211,
      "ㅠㅠㅠ": 6212,
      "역대": 6213,
      "배우다": 6214,
      "들어가다": 6215,
      "리얼": 6216,
      "걸리다": 6217,
      "충분히": 6218,
      "그림": 6219,
      "어린": 6220,
      "##라지다": 6221,
      "연출력": 6222,
      "80": 6223,
      "물론": 6224,
      "##저히": 6225,
      "년도": 6226,
      "알리다": 6227,
      "카메": 6228,
      "게임": 6229,
      "돋보이다": 6230,
      "원래": 6231,
      "사건": 6232,
      "##ㅠㅠㅠㅠ": 6233,
      "귀신": 6234,
      "로서": 6235,
      "한심": 6236,
      "감상": 6237,
      "짧다": 6238,
      "짜다": 6239,
      "ᆯ려고": 6240,
      "똑같다": 6241,
      "식상": 6242,
      "자꾸": 6243,
      "풀다": 6244,
      "엉망": 6245,
      "전형": 6246,
      "화이팅": 6247,
      "결혼": 6248,
      "##립다": 6249,
      "뛰어나다": 6250,
      "심리": 6251,
      "코메": 6252,
      "도록": 6253,
      "따위": 6254,
      "영웅": 6255,
      "##군요": 6256,
      "미안": 6257,
      "한번": 6258,
      "홍콩": 6259,
      "별루": 6260,
      "코메디": 6261,
      "훈훈": 6262,
      "지겹다": 6263,
      "는구": 6264,
      "으며": 6265,
      "성우": 6266,
      "그닥": 6267,
      "자극": 6268,
      "헐리": 6269,
      "##리티": 6270,
      "바보": 6271,
      "그래픽": 6272,
      "담다": 6273,
      "대한": 6274,
      "##마디": 6275,
      "재다": 6276,
      "##무리": 6277,
      "싸우다": 6278,
      "으시": 6279,
      "표정": 6280,
      "##우드": 6281,
      "라이": 6282,
      "한마디": 6283,
      "네여": 6284,
      "불륜": 6285,
      "천재": 6286,
      "취향": 6287,
      "연기자": 6288,
      "속다": 6289,
      "황당": 6290,
      "노력": 6291,
      "진지": 6292,
      "12": 6293,
      "짓다": 6294,
      "##세지": 6295,
      "경찰": 6296,
      "야하다": 6297,
      "과거": 6298,
      "예고편": 6299,
      "먹먹": 6300,
      "죽음": 6301,
      "괜히": 6302,
      "또한": 6303,
      "설명": 6304,
      "질리다": 6305,
      "참신": 6306,
      "여전": 6307,
      "후반부": 6308,
      "다루다": 6309,
      "짱짱": 6310,
      "##민국": 6311,
      "독립": 6312,
      "바람": 6313,
      "진실": 6314,
      "대한민국": 6315,
      "멍청": 6316,
      "##서다": 6317,
      "마무리": 6318,
      "고자": 6319,
      "대작": 6320,
      "도저히": 6321,
      "동화": 6322,
      "역겹다": 6323,
      "##라가다": 6324,
      "소중": 6325,
      "새끼": 6326,
      "서다": 6327,
      "##생기다": 6328,
      "ᆯ로": 6329,
      "그립다": 6330,
      "예산": 6331,
      "##히려": 6332,
      "th": 6333,
      "갈수록": 6334,
      "병맛": 6335,
      "오히려": 6336,
      "전문": 6337,
      "조연": 6338,
      "##저씨": 6339,
      "관심": 6340,
      "분명": 6341,
      "소녀": 6342,
      "유머": 6343,
      "로맨틱": 6344,
      "아저씨": 6345,
      "여성": 6346,
      "전설": 6347,
      "좀비": 6348,
      "촬영": 6349,
      "특유": 6350,
      "노출": 6351,
      "신기": 6352,
      "까다": 6353,
      "우연히": 6354,
      "희망": 6355,
      "최근": 6356,
      "ᆸ니까": 6357,
      "중반": 6358,
      "다만": 6359,
      "무어": 6360,
      "저질": 6361,
      "적당": 6362,
      "환상": 6363,
      "멀다": 6364,
      "유명": 6365,
      "전달": 6366,
      "##재밋": 6367,
      "때리다": 6368,
      "15": 6369,
      "내리다": 6370,
      "부모": 6371,
      "메세지": 6372,
      "억지로": 6373,
      "흘리다": 6374,
      "아마": 6375,
      "약하다": 6376,
      "##bs": 6377,
      "굳다": 6378,
      "능력": 6379,
      "다행": 6380,
      "영원": 6381,
      "##in": 6382,
      "##닫다": 6383,
      "우울": 6384,
      "저렇다": 6385,
      "졸다": 6386,
      "행동": 6387,
      "##진진": 6388,
      "흥미진진": 6389,
      "돌아가다": 6390,
      "은지": 6391,
      "현재": 6392,
      "오빠": 6393,
      "##오르다": 6394,
      "ᆸ시다": 6395,
      "먼저": 6396,
      "어여": 6397,
      "청춘": 6398,
      "효과": 6399,
      "##하하": 6400,
      "서로": 6401,
      "끼치다": 6402,
      "성장": 6403,
      "인정": 6404,
      "##그램": 6405,
      "강하다": 6406,
      "묘사": 6407,
      "프로그램": 6408,
      "비추다": 6409,
      "전작": 6410,
      "가득": 6411,
      "리메이": 6412,
      "설레": 6413,
      "거지": 6414,
      "무조": 6415,
      "실패": 6416,
      "일어나다": 6417,
      "는구나": 6418,
      "ㅇㅇ": 6419,
      "마저": 6420,
      "리메이크": 6421,
      "다니다": 6422,
      "랄까": 6423,
      "##아오다": 6424,
      "미화": 6425,
      "구요": 6426,
      "사라지다": 6427,
      "허술": 6428,
      "그때": 6429,
      "레이": 6430,
      "무비": 6431,
      "졸리다": 6432,
      "차이": 6433,
      "무조건": 6434,
      "##파이": 6435,
      "철학": 6436,
      "해피": 6437,
      "빠르다": 6438,
      "초등학": 6439,
      "신선하다": 6440,
      "완성도": 6441,
      "속편": 6442,
      "스케": 6443,
      "역할": 6444,
      "자유": 6445,
      "전편": 6446,
      "구하다": 6447,
      "잔잔하다": 6448,
      "카메라": 6449,
      "나중": 6450,
      "훌륭하다": 6451,
      "끝내다": 6452,
      "마디": 6453,
      "문화": 6454,
      "채널": 6455,
      "제작비": 6456,
      "러브": 6457,
      "##터리": 6458,
      "미래": 6459,
      "성공": 6460,
      "왠지": 6461,
      "으려": 6462,
      "과정": 6463,
      "닿다": 6464,
      "선생": 6465,
      "가끔": 6466,
      "마치": 6467,
      "깊이": 6468,
      "깨닫다": 6469,
      "그런데": 6470,
      "사극": 6471,
      "착하다": 6472,
      "극장판": 6473,
      "범인": 6474,
      "어찌": 6475,
      "잊히다": 6476,
      "##머지": 6477,
      "나머지": 6478,
      "드럽다": 6479,
      "성인": 6480,
      "정치": 6481,
      "##뀌다": 6482,
      "궁금하다": 6483,
      "ㅅㅂ": 6484,
      "더군요": 6485,
      "외국": 6486,
      "호러": 6487,
      "케이블": 6488,
      "지나치다": 6489,
      "적다": 6490,
      "싸이": 6491,
      "아무것": 6492,
      "미소": 6493,
      "##하나": 6494,
      "태어나다": 6495,
      "군대": 6496,
      "바뀌다": 6497,
      "##다르다": 6498,
      "묻다": 6499,
      "하루": 6500,
      "차다": 6501,
      "##너무": 6502,
      "스케일": 6503,
      "박수": 6504,
      "연애": 6505,
      "위대": 6506,
      "젊다": 6507,
      "치고": 6508,
      "##시지": 6509,
      "어린이": 6510,
      "산만": 6511,
      "심심": 6512,
      "작다": 6513,
      "생애": 6514,
      "이연": 6515,
      "답답하다": 6516,
      "날리다": 6517,
      "뜬금": 6518,
      "찾아보다": 6519,
      "평생": 6520,
      "##디어": 6521,
      "제작진": 6522,
      "상상력": 6523,
      "다소": 6524,
      "미스": 6525,
      "폭력": 6526,
      "##리아": 6527,
      "모자": 6528,
      "스트": 6529,
      "아쉬": 6530,
      "##ㅜㅜ": 6531,
      "고생": 6532,
      "시원": 6533,
      "울리다": 6534,
      "##ㄷㄷ": 6535,
      "확실히": 6536,
      "대충": 6537,
      "메시지": 6538,
      "사기": 6539,
      "오글": 6540,
      "종교": 6541,
      "ᆯ라": 6542,
      "늙다": 6543,
      "되게": 6544,
      "일상": 6545,
      "동생": 6546,
      "리뷰": 6547,
      "감탄": 6548,
      "틀다": 6549,
      "광고": 6550,
      "아오": 6551,
      "피해": 6552,
      "고민": 6553,
      "괴물": 6554,
      "굳이": 6555,
      "블랙": 6556,
      "##레스": 6557,
      "하나하나": 6558,
      "불가": 6559,
      "살아가다": 6560,
      "언니": 6561,
      "##래다": 6562,
      "결론": 6563,
      "깨다": 6564,
      "의외": 6565,
      "커플": 6566,
      "##vd": 6567,
      "dvd": 6568,
      "지키다": 6569,
      "##or": 6570,
      "고맙": 6571,
      "아침": 6572,
      "인기": 6573,
      "포장": 6574,
      "아쉬움": 6575,
      "손발": 6576,
      "얻다": 6577,
      "유일": 6578,
      "을지": 6579,
      "막히다": 6580,
      "스포": 6581,
      "한계": 6582,
      "달리다": 6583,
      "발견": 6584,
      "연예": 6585,
      "고맙다": 6586,
      "거리다": 6587,
      "동물": 6588,
      "뮤지": 6589,
      "여행": 6590,
      "조폭": 6591,
      "흐름": 6592,
      "11": 6593,
      "놀다": 6594,
      "슈퍼": 6595,
      "싸다": 6596,
      "오락": 6597,
      "무협": 6598,
      "빌리다": 6599,
      "##심히": 6600,
      "과연": 6601,
      "아놔": 6602,
      "여전히": 6603,
      "싸이코": 6604,
      "글쎄": 6605,
      "넘어": 6606,
      "홍보": 6607,
      "너무너무": 6608,
      "기본": 6609,
      "던지다": 6610,
      "살짝": 6611,
      "##성애": 6612,
      "떠오르다": 6613,
      "##부분": 6614,
      "그다": 6615,
      "상처": 6616,
      "자막": 6617,
      "##그라": 6618,
      "40": 6619,
      "국민": 6620,
      "벗다": 6621,
      "시사": 6622,
      "섹시": 6623,
      "슬픔": 6624,
      "용서": 6625,
      "정서": 6626,
      "특별": 6627,
      "현대": 6628,
      "ㅠㅠㅠㅠ": 6629,
      "끼다": 6630,
      "나타": 6631,
      "변하다": 6632,
      "섹스": 6633,
      "쏘다": 6634,
      "##거리다": 6635,
      "결과": 6636,
      "몸매": 6637,
      "분노": 6638,
      "뮤지컬": 6639,
      "덕분": 6640,
      "개판": 6641,
      "끼리": 6642,
      "무시": 6643,
      "볼거리": 6644,
      "시선": 6645,
      "챙기다": 6646,
      "##러지다": 6647,
      "탄탄하다": 6648,
      "무지": 6649,
      "자식": 6650,
      "##저럭": 6651,
      "에휴": 6652,
      "코드": 6653,
      "힐링": 6654,
      "##구요": 6655,
      "시청자": 6656,
      "게이": 6657,
      "데이": 6658,
      "빨다": 6659,
      "퀄리티": 6660,
      "표절": 6661,
      "##니아": 6662,
      "그럭": 6663,
      "남편": 6664,
      "반성": 6665,
      "소장": 6666,
      "열심히": 6667,
      "우정": 6668,
      "##돌다": 6669,
      "어떻게": 6670,
      "그럭저럭": 6671,
      "거짓": 6672,
      "무겁다": 6673,
      "##물다": 6674,
      "시키다": 6675,
      "깔끔": 6676,
      "이따": 6677,
      "포기": 6678,
      "##소년": 6679,
      "눈빛": 6680,
      "이기다": 6681,
      "지구": 6682,
      "후속": 6683,
      "정말로": 6684,
      "비슷하다": 6685,
      "the": 6686,
      "아련": 6687,
      "인하다": 6688,
      "##라스": 6689,
      "더라도": 6690,
      "남녀": 6691,
      "비극": 6692,
      "##ㅎㅎ": 6693,
      "##잡다": 6694,
      "다큐멘": 6695,
      "공부": 6696,
      "오버": 6697,
      "조절": 6698,
      "테러": 6699,
      "혹시": 6700,
      "데리다": 6701,
      "통쾌": 6702,
      "고전": 6703,
      "방식": 6704,
      "##시아": 6705,
      "압권": 6706,
      "자는": 6707,
      "졸라": 6708,
      "막판": 6709,
      "주기": 6710,
      "북한": 6711,
      "전투": 6712,
      "하이": 6713,
      "##와르": 6714,
      "어제": 6715,
      "어둡": 6716,
      "의심": 6717,
      "어둡다": 6718,
      "난해": 6719,
      "펑펑": 6720,
      "흘러": 6721,
      "##래기": 6722,
      "##ou": 6723,
      "으로서": 6724,
      "듯이": 6725,
      "만하다": 6726,
      "쉬다": 6727,
      "이어지다": 6728,
      "담기다": 6729,
      "불쾌": 6730,
      "희생": 6731,
      "느라": 6732,
      "따다": 6733,
      "색다르다": 6734,
      "스티": 6735,
      "오그라": 6736,
      "##an": 6737,
      "불쌍하다": 6738,
      "이연걸": 6739,
      "##즈니": 6740,
      "18": 6741,
      "김기": 6742,
      "다이": 6743,
      "뛰어": 6744,
      "시도": 6745,
      "악당": 6746,
      "감명": 6747,
      "기술": 6748,
      "라지만": 6749,
      "신경": 6750,
      "악역": 6751,
      "인터": 6752,
      "##ㅋㅋㅋㅋㅋㅋㅋㅋㅋㅋㅋㅋㅋㅋㅋㅋ": 6753,
      "설레다": 6754,
      "70": 6755,
      "느와르": 6756,
      "니콜": 6757,
      "심각": 6758,
      "장애": 6759,
      "적절": 6760,
      "형편": 6761,
      "##주얼": 6762,
      "##어내다": 6763,
      "씁쓸": 6764,
      "재난": 6765,
      "전하다": 6766,
      "조잡": 6767,
      "새벽": 6768,
      "세기": 6769,
      "암튼": 6770,
      "에이": 6771,
      "우주": 6772,
      "청소년": 6773,
      "투자": 6774,
      "##드다": 6775,
      "##엔딩": 6776,
      "다큐멘터리": 6777,
      "느리다": 6778,
      "벌써": 6779,
      "실력": 6780,
      "연결": 6781,
      "입장": 6782,
      "부끄럽다": 6783,
      "시걸": 6784,
      "쓸데": 6785,
      "열정": 6786,
      "해피엔딩": 6787,
      "오그라들다": 6788,
      "게다가": 6789,
      "언제나": 6790,
      "50": 6791,
      "더만": 6792,
      "발전": 6793,
      "생활": 6794,
      "스크": 6795,
      "이루다": 6796,
      "##갑다": 6797,
      "당하": 6798,
      "메이": 6799,
      "무리": 6800,
      "의문": 6801,
      "ᆯ까요": 6802,
      "그다지": 6803,
      "누나": 6804,
      "디즈니": 6805,
      "로써": 6806,
      "반복": 6807,
      "불구": 6808,
      "빛나다": 6809,
      "싸움": 6810,
      "욕하다": 6811,
      "채우다": 6812,
      "##마스": 6813,
      "##인물": 6814,
      "등장인물": 6815,
      "니깐": 6816,
      "던지": 6817,
      "만드다": 6818,
      "비주얼": 6819,
      "시각": 6820,
      "아줌": 6821,
      "오랫": 6822,
      "올해": 6823,
      "00": 6824,
      "놓치다": 6825,
      "돌다": 6826,
      "드러": 6827,
      "러닝": 6828,
      "외계": 6829,
      "전기": 6830,
      "##구려": 6831,
      "##놓다": 6832,
      "♥♥♥": 6833,
      "냐고": 6834,
      "소소": 6835,
      "##너스": 6836,
      "출연진": 6837,
      "연예인": 6838,
      "구리다": 6839,
      "닮다": 6840,
      "대표": 6841,
      "베스트": 6842,
      "비다": 6843,
      "지우다": 6844,
      "한국인": 6845,
      "아줌마": 6846,
      "강렬": 6847,
      "라인": 6848,
      "풋풋": 6849,
      "전문가": 6850,
      "일반": 6851,
      "중학": 6852,
      "지르다": 6853,
      "헐리우드": 6854,
      "겁나": 6855,
      "방금": 6856,
      "연속": 6857,
      "##이터": 6858,
      "들어오다": 6859,
      "맨날": 6860,
      "어머니": 6861,
      "에피": 6862,
      "자리": 6863,
      "해석": 6864,
      "##아먹다": 6865,
      "##차다": 6866,
      "##소드": 6867,
      "검색": 6868,
      "그럼": 6869,
      "일부": 6870,
      "특수": 6871,
      "##어로": 6872,
      "아기": 6873,
      "학생": 6874,
      "##어요": 6875,
      "##인트": 6876,
      "로그": 6877,
      "벌다": 6878,
      "인도": 6879,
      "주변": 6880,
      "ㅋㅋㅋㅋㅋㅋ": 6881,
      "과장": 6882,
      "낳다": 6883,
      "본인": 6884,
      "설마": 6885,
      "섬세": 6886,
      "외모": 6887,
      "존경": 6888,
      "죄다": 6889,
      "타이": 6890,
      "흔하다": 6891,
      "##스로": 6892,
      "##동안": 6893,
      "의리": 6894,
      "최소": 6895,
      "필름": 6896,
      "학년": 6897,
      "재밋게": 6898,
      "13": 6899,
      "고통": 6900,
      "늦다": 6901,
      "떼다": 6902,
      "뭉클": 6903,
      "방법": 6904,
      "시트": 6905,
      "싸구려": 6906,
      "어휴": 6907,
      "입다": 6908,
      "##자단": 6909,
      "가깝다": 6910,
      "겨울": 6911,
      "관하다": 6912,
      "라기": 6913,
      "미드": 6914,
      "비판": 6915,
      "상업": 6916,
      "찌질": 6917,
      "##구니": 6918,
      "##ad": 6919,
      "##집다": 6920,
      "이제야": 6921,
      "갈등": 6922,
      "견자단": 6923,
      "애기": 6924,
      "진리": 6925,
      "##이스": 6926,
      "이미지": 6927,
      "로그인": 6928,
      "경험": 6929,
      "단지": 6930,
      "려면": 6931,
      "쓰래기": 6932,
      "앗다": 6933,
      "열다": 6934,
      "코난": 6935,
      "##on": 6936,
      "시트콤": 6937,
      "들이다": 6938,
      "싫어": 6939,
      "잘생기다": 6940,
      "접하다": 6941,
      "짝퉁": 6942,
      "재미나다": 6943,
      "싫어하다": 6944,
      "극치": 6945,
      "단연": 6946,
      "스다": 6947,
      "시시": 6948,
      "심장": 6949,
      "영어": 6950,
      "##이크": 6951,
      "##독교": 6952,
      "밋밋": 6953,
      "양심": 6954,
      "전반": 6955,
      "캐리": 6956,
      "해리": 6957,
      "##아아": 6958,
      "##라보다": 6959,
      "##들이다": 6960,
      "김기덕": 6961,
      "돌아오다": 6962,
      "딱히": 6963,
      "로봇": 6964,
      "형사": 6965,
      "다가오다": 6966,
      "으니까": 6967,
      "실제로": 6968,
      "형편없다": 6969,
      "국가": 6970,
      "국내": 6971,
      "늘다": 6972,
      "로버": 6973,
      "명품": 6974,
      "스스로": 6975,
      "이기": 6976,
      "팔다": 6977,
      "##려오다": 6978,
      "에피소드": 6979,
      "교육": 6980,
      "기자": 6981,
      "때우다": 6982,
      "복잡": 6983,
      "세월": 6984,
      "아픔": 6985,
      "유발": 6986,
      "조작": 6987,
      "주말": 6988,
      "찝찝": 6989,
      "##가락": 6990,
      "##네요": 6991,
      "##ar": 6992,
      "##at": 6993,
      "피해자": 6994,
      "시사회": 6995,
      "다양": 6996,
      "민망": 6997,
      "이용": 6998,
      "이끌": 6999,
      "조합": 7000,
      "##가지": 7001,
      "고양": 7002,
      "대화": 7003,
      "최강": 7004,
      "be": 7005,
      "개념": 7006,
      "아역": 7007,
      "아류": 7008,
      "원하다": 7009,
      "지요": 7010,
      "쵝오": 7011,
      "개성": 7012,
      "걸다": 7013,
      "더불": 7014,
      "생생": 7015,
      "자살": 7016,
      "조선": 7017,
      "허세": 7018,
      "##아내다": 7019,
      "흘러가다": 7020,
      "기독교": 7021,
      "숨기다": 7022,
      "은근": 7023,
      "##ㅋㅋㅋ": 7024,
      "더라면": 7025,
      "199": 7026,
      "어처": 7027,
      "피다": 7028,
      "어색하다": 7029,
      "마이클": 7030,
      "거슬": 7031,
      "명성": 7032,
      "사진": 7033,
      "어우": 7034,
      "조용": 7035,
      "치밀": 7036,
      "편견": 7037,
      "##중간": 7038,
      "##으다": 7039,
      "외계인": 7040,
      "맡다": 7041,
      "무척": 7042,
      "바라보다": 7043,
      "반하다": 7044,
      "영국": 7045,
      "제이": 7046,
      "##요일": 7047,
      "##라도": 7048,
      "헐리웃": 7049,
      "어처구니": 7050,
      "개뿔": 7051,
      "그렇게": 7052,
      "대중": 7053,
      "미모": 7054,
      "뽑다": 7055,
      "스파이": 7056,
      "와우": 7057,
      "특이": 7058,
      "한참": 7059,
      "할머니": 7060,
      "##나오다": 7061,
      "##르노": 7062,
      "007": 7063,
      "인내": 7064,
      "직접": 7065,
      "풍경": 7066,
      "거슬리다": 7067,
      "상관": 7068,
      "짠하다": 7069,
      "##말로": 7070,
      "깜짝": 7071,
      "어다": 7072,
      "오르다": 7073,
      "제로": 7074,
      "##되다": 7075,
      "##쓰다": 7076,
      "##뜨리다": 7077,
      "가수": 7078,
      "레알": 7079,
      "부럽다": 7080,
      "영혼": 7081,
      "움직": 7082,
      "응원": 7083,
      "책임": 7084,
      "히어로": 7085,
      "##으로": 7086,
      "더라구요": 7087,
      "뜬금없다": 7088,
      "모자라다": 7089,
      "의외로": 7090,
      "그지": 7091,
      "대학": 7092,
      "마리": 7093,
      "정상": 7094,
      "화나다": 7095,
      "##이션": 7096,
      "마이너스": 7097,
      "초등학생": 7098,
      "올라가다": 7099,
      "##ie": 7100,
      "으로써": 7101,
      "##리스마": 7102,
      "꼽다": 7103,
      "뛰다": 7104,
      "오바": 7105,
      "##ov": 7106,
      "♥♥": 7107,
      "고등학": 7108,
      "달달": 7109,
      "따지다": 7110,
      "변화": 7111,
      "우와": 7112,
      "##운드": 7113,
      "##ing": 7114,
      "이끌다": 7115,
      "고양이": 7116,
      "기준": 7117,
      "대본": 7118,
      "못생기다": 7119,
      "아동": 7120,
      "야동": 7121,
      "카리스마": 7122,
      "포르노": 7123,
      "##사랑": 7124,
      "따뜻하다": 7125,
      "기세": 7126,
      "따로": 7127,
      "따라가다": 7128,
      "붙이다": 7129,
      "사고": 7130,
      "성격": 7131,
      "악마": 7132,
      "하하하": 7133,
      "##가리": 7134,
      "##ll": 7135,
      "스크린": 7136,
      "따라": 7137,
      "용기": 7138,
      "최대": 7139,
      "##두다": 7140,
      "완전히": 7141,
      "고르다": 7142,
      "의식": 7143,
      "자면": 7144,
      "정의": 7145,
      "주성": 7146,
      "##타인": 7147,
      "정신병": 7148,
      "주성치": 7149,
      "14": 7150,
      "넘기다": 7151,
      "센스": 7152,
      "##루스": 7153,
      "##전드": 7154,
      "##테일": 7155,
      "스트레스": 7156,
      "ᆯ래": 7157,
      "등등": 7158,
      "레전드": 7159,
      "블록": 7160,
      "ㅉㅉㅉ": 7161,
      "강력": 7162,
      "박진": 7163,
      "비밀": 7164,
      "여름": 7165,
      "형제": 7166,
      "##트맨": 7167,
      "화려하다": 7168,
      "관점": 7169,
      "동시": 7170,
      "아내": 7171,
      "어지": 7172,
      "유지": 7173,
      "잠깐": 7174,
      "크리스마스": 7175,
      "겨우": 7176,
      "낚시": 7177,
      "도전": 7178,
      "드물다": 7179,
      "운명": 7180,
      "잠들다": 7181,
      "조아": 7182,
      "##로우": 7183,
      "더불다": 7184,
      "기회": 7185,
      "수고": 7186,
      "욕망": 7187,
      "자고": 7188,
      "정체": 7189,
      "조화": 7190,
      "21": 7191,
      "가정": 7192,
      "바다": 7193,
      "벗어나다": 7194,
      "변태": 7195,
      "부부": 7196,
      "사상": 7197,
      "스페": 7198,
      "의하다": 7199,
      "참으로": 7200,
      "ᆯ께": 7201,
      "끝내": 7202,
      "방영": 7203,
      "자주": 7204,
      "젠장": 7205,
      "하늘": 7206,
      "##버리다": 7207,
      "먹먹하다": 7208,
      "멈추다": 7209,
      "모으다": 7210,
      "야구": 7211,
      "어쩜": 7212,
      "여태": 7213,
      "예능": 7214,
      "포인트": 7215,
      "##깊다": 7216,
      "기억나다": 7217,
      "나타나다": 7218,
      "ㅠㅜ": 7219,
      "내면": 7220,
      "당연": 7221,
      "색감": 7222,
      "서부": 7223,
      "썩다": 7224,
      "아예": 7225,
      "웬만": 7226,
      "패러": 7227,
      "흉내": 7228,
      "감각": 7229,
      "김수": 7230,
      "대부분": 7231,
      "몰다": 7232,
      "선물": 7233,
      "이정": 7234,
      "일품": 7235,
      "짜임": 7236,
      "흑인": 7237,
      "결정": 7238,
      "김민": 7239,
      "매니아": 7240,
      "무술": 7241,
      "보통": 7242,
      "우려": 7243,
      "해결": 7244,
      "확인": 7245,
      "감히": 7246,
      "냄새": 7247,
      "신비": 7248,
      "아래": 7249,
      "호감": 7250,
      "아이돌": 7251,
      "기발": 7252,
      "디테일": 7253,
      "모양": 7254,
      "믿기다": 7255,
      "빈약": 7256,
      "숨다": 7257,
      "오브": 7258,
      "차별": 7259,
      "##om": 7260,
      "2014": 7261,
      "갖추다": 7262,
      "공짜": 7263,
      "몇몇": 7264,
      "반대": 7265,
      "부리다": 7266,
      "설득": 7267,
      "탄생": 7268,
      "풍자": 7269,
      "##장면": 7270,
      "##려가다": 7271,
      "근래": 7272,
      "단어": 7273,
      "동성애": 7274,
      "명화": 7275,
      "상태": 7276,
      "세련": 7277,
      "소년": 7278,
      "신파": 7279,
      "이소": 7280,
      "클레": 7281,
      "키우다": 7282,
      "하지": 7283,
      "##아버지": 7284,
      "##같이": 7285,
      "공포물": 7286,
      "영원히": 7287,
      "거짓말": 7288,
      "개다": 7289,
      "관련": 7290,
      "돌아보다": 7291,
      "모험": 7292,
      "배역": 7293,
      "시점": 7294,
      "심지": 7295,
      "심오": 7296,
      "진하다": 7297,
      "##스타": 7298,
      "##성기": 7299,
      "##맞다": 7300,
      "##0000": 7301,
      "감흥": 7302,
      "류승": 7303,
      "승리": 7304,
      "중독": 7305,
      "최초": 7306,
      "패러디": 7307,
      "개막": 7308,
      "기법": 7309,
      "낮추다": 7310,
      "런닝": 7311,
      "오로": 7312,
      "제시": 7313,
      "##이트": 7314,
      "꼬마": 7315,
      "차리다": 7316,
      "추리": 7317,
      "케릭": 7318,
      "할리": 7319,
      "화끈": 7320,
      "ㄷㄷㄷ": 7321,
      "과학": 7322,
      "둘째": 7323,
      "베드": 7324,
      "연인": 7325,
      "왜곡": 7326,
      "조니": 7327,
      "##대다": 7328,
      "넘어가다": 7329,
      "움직이다": 7330,
      "건지다": 7331,
      "매일": 7332,
      "목적": 7333,
      "브루스": 7334,
      "비행": 7335,
      "아나": 7336,
      "전율": 7337,
      "##임스": 7338,
      "##러스": 7339,
      "##ㅇㅇ": 7340,
      "##넘다": 7341,
      "오랫만": 7342,
      "소소하다": 7343,
      "ebs": 7344,
      "ᆯ게": 7345,
      "도망": 7346,
      "바래다": 7347,
      "정보": 7348,
      "충실": 7349,
      "탈출": 7350,
      "##리언": 7351,
      "여러분": 7352,
      "지나가다": 7353,
      "고서": 7354,
      "다섯": 7355,
      "단편": 7356,
      "부탁": 7357,
      "빵점": 7358,
      "사투": 7359,
      "요리": 7360,
      "인디": 7361,
      "작위": 7362,
      "틀리다": 7363,
      "뛰어넘다": 7364,
      "계시다": 7365,
      "미스터": 7366,
      "애쓰다": 7367,
      "이민": 7368,
      "이만": 7369,
      "잔뜩": 7370,
      "후하다": 7371,
      "##으키다": 7372,
      "초등학교": 7373,
      "심지어": 7374,
      "to": 7375,
      "깎다": 7376,
      "드림": 7377,
      "밝히다": 7378,
      "봐주다": 7379,
      "이때": 7380,
      "제임스": 7381,
      "최민": 7382,
      "폐지": 7383,
      "향하다": 7384,
      "##레딧": 7385,
      "하나같이": 7386,
      "라이언": 7387,
      "no": 7388,
      "부실": 7389,
      "사운드": 7390,
      "상대": 7391,
      "선동": 7392,
      "울컥": 7393,
      "풀어내다": 7394,
      "##아지다": 7395,
      "##누다": 7396,
      "##bb": 7397,
      "달달하다": 7398,
      "you": 7399,
      "결코": 7400,
      "삭제": 7401,
      "손가락": 7402,
      "잔혹": 7403,
      "집착": 7404,
      "##우성": 7405,
      "##es": 7406,
      "##en": 7407,
      "##bc": 7408,
      "##피스": 7409,
      "진정하다": 7410,
      "60": 7411,
      "감안": 7412,
      "거부": 7413,
      "빵빵": 7414,
      "생명": 7415,
      "스텝": 7416,
      "앉다": 7417,
      "은가": 7418,
      "키스": 7419,
      "파워": 7420,
      "짜임새": 7421,
      "거북": 7422,
      "느니": 7423,
      "만남": 7424,
      "보기": 7425,
      "살아": 7426,
      "시기": 7427,
      "안다": 7428,
      "연극": 7429,
      "열연": 7430,
      "유아": 7431,
      "종영": 7432,
      "할아버지": 7433,
      "##포터": 7434,
      "겪다": 7435,
      "깍다": 7436,
      "목숨": 7437,
      "베이": 7438,
      "사수": 7439,
      "여서": 7440,
      "예수": 7441,
      "욕심": 7442,
      "##버스터": 7443,
      "##지르다": 7444,
      "##거지": 7445,
      "장난치다": 7446,
      "그만큼": 7447,
      "##ㅠㅠㅠㅠㅠㅠㅠㅠ": 7448,
      "꿈꾸다": 7449,
      "무료": 7450,
      "시끄럽다": 7451,
      "저것": 7452,
      "화장": 7453,
      "##ut": 7454,
      "##토록": 7455,
      "난리": 7456,
      "담배": 7457,
      "##버그": 7458,
      "##99": 7459,
      "후속작": 7460,
      "22": 7461,
      "공간": 7462,
      "끔찍": 7463,
      "들리다": 7464,
      "려다": 7465,
      "바이": 7466,
      "저러다": 7467,
      "파괴": 7468,
      "핵노잼": 7469,
      "##팩트": 7470,
      "ㅎㅎㅎㅎ": 7471,
      "동네": 7472,
      "정작": 7473,
      "제외": 7474,
      "헤어지다": 7475,
      "아이디어": 7476,
      "허술하다": 7477,
      "스티븐": 7478,
      "대신": 7479,
      "떨다": 7480,
      "모이다": 7481,
      "무한": 7482,
      "상실": 7483,
      "왜케": 7484,
      "장국": 7485,
      "참고": 7486,
      "혹은": 7487,
      "##보이": 7488,
      "영화제": 7489,
      "##000": 7490,
      "블록버스터": 7491,
      "과하다": 7492,
      "이성": 7493,
      "인형": 7494,
      "재능": 7495,
      "제니": 7496,
      "터미": 7497,
      "편안": 7498,
      "힘내다": 7499,
      "##디다": 7500,
      "##세요": 7501,
      "##레인": 7502,
      "상영관": 7503,
      "44": 7504,
      "건만": 7505,
      "버전": 7506,
      "빌다": 7507,
      "신고": 7508,
      "음식": 7509,
      "조카": 7510,
      "프다": 7511,
      "하하": 7512,
      "##스럽다": 7513,
      "##어리": 7514,
      "##꿀잼": 7515,
      "아무런": 7516,
      "클레멘": 7517,
      "가르": 7518,
      "걱정": 7519,
      "당연히": 7520,
      "도시": 7521,
      "독일": 7522,
      "러시아": 7523,
      "수입": 7524,
      "수많": 7525,
      "자세": 7526,
      "정확": 7527,
      "지경": 7528,
      "##상수": 7529,
      "##통령": 7530,
      "##파이어": 7531,
      "전기세": 7532,
      "장국영": 7533,
      "클레멘타인": 7534,
      "수많다": 7535,
      "다크": 7536,
      "자동": 7537,
      "적당히": 7538,
      "케빈": 7539,
      "##리카": 7540,
      "##워하다": 7541,
      "재밋다": 7542,
      "##레이션": 7543,
      "ㅋㅋㅋㅋㅋㅋㅋㅋ": 7544,
      "로버트": 7545,
      "나누다": 7546,
      "따름": 7547,
      "심형": 7548,
      "의사": 7549,
      "자랑": 7550,
      "절정": 7551,
      "지리": 7552,
      "프레": 7553,
      "##아이": 7554,
      "##웨이": 7555,
      "##싸다": 7556,
      "을까요": 7557,
      "신기하다": 7558,
      "터미네": 7559,
      "대통령": 7560,
      "만약": 7561,
      "말아먹다": 7562,
      "이병": 7563,
      "일깨": 7564,
      "임팩트": 7565,
      "추격": 7566,
      "폭발": 7567,
      "프리": 7568,
      "플롯": 7569,
      "한편": 7570,
      "##퓨터": 7571,
      "터미네이터": 7572,
      "일깨우다": 7573,
      "가리다": 7574,
      "끌리다": 7575,
      "망가": 7576,
      "바탕": 7577,
      "실수": 7578,
      "여친": 7579,
      "으리": 7580,
      "중심": 7581,
      "허다": 7582,
      "##로드": 7583,
      "##어도": 7584,
      "##무지": 7585,
      "##티브": 7586,
      "사투리": 7587,
      "심형래": 7588,
      "거든": 7589,
      "교과": 7590,
      "나무": 7591,
      "늑대": 7592,
      "닥치다": 7593,
      "돼지": 7594,
      "마냥": 7595,
      "망작": 7596,
      "묻히다": 7597,
      "배트맨": 7598,
      "요새": 7599,
      "우연": 7600,
      "자본": 7601,
      "적어도": 7602,
      "컴퓨터": 7603,
      "하품": 7604,
      "##ver": 7605,
      "##티즌": 7606,
      "##서야": 7607,
      "##놓고": 7608,
      "현실감": 7609,
      "일본인": 7610,
      "중간중간": 7611,
      "교과서": 7612,
      "끼우다": 7613,
      "대놓고": 7614,
      "따듯": 7615,
      "뜨겁다": 7616,
      "명장면": 7617,
      "배신": 7618,
      "뱀파이어": 7619,
      "신세": 7620,
      "업다": 7621,
      "여인": 7622,
      "우뢰": 7623,
      "익숙": 7624,
      "잠시": 7625,
      "찬란": 7626,
      "폭풍": 7627,
      "##다니다": 7628,
      "제이슨": 7629,
      "설득력": 7630,
      "이소룡": 7631,
      "동양": 7632,
      "디워": 7633,
      "유덕": 7634,
      "지치다": 7635,
      "착각": 7636,
      "##바이": 7637,
      "중학교": 7638,
      "일부러": 7639,
      "공주": 7640,
      "김혜": 7641,
      "노답": 7642,
      "리즈": 7643,
      "발상": 7644,
      "빠져": 7645,
      "선정": 7646,
      "실험": 7647,
      "앞뒤": 7648,
      "영향": 7649,
      "오리": 7650,
      "위험": 7651,
      "캐다": 7652,
      "편하다": 7653,
      "호기": 7654,
      "환경": 7655,
      "##re": 7656,
      "##야말로": 7657,
      "단순히": 7658,
      "참신하다": 7659,
      "인터넷": 7660,
      "mbc": 7661,
      "of": 7662,
      "그야말로": 7663,
      "논리": 7664,
      "늘어지다": 7665,
      "대결": 7666,
      "따분": 7667,
      "로코": 7668,
      "무너": 7669,
      "반갑다": 7670,
      "밝다": 7671,
      "애매": 7672,
      "오프": 7673,
      "외롭다": 7674,
      "축구": 7675,
      "파다": 7676,
      "판단": 7677,
      "##it": 7678,
      "##대사": 7679,
      "해리포터": 7680,
      "도움": 7681,
      "보영": 7682,
      "상어": 7683,
      "서울": 7684,
      "애국": 7685,
      "컨셉": 7686,
      "살인마": 7687,
      "달리": 7688,
      "배급": 7689,
      "세대": 7690,
      "아우": 7691,
      "와이": 7692,
      "주의": 7693,
      "첫사랑": 7694,
      "호구": 7695,
      "##세포": 7696,
      "##od": 7697,
      "드러나다": 7698,
      "인내심": 7699,
      "제니퍼": 7700,
      "건강": 7701,
      "걷다": 7702,
      "계기": 7703,
      "꾸다": 7704,
      "내일": 7705,
      "다리": 7706,
      "동심": 7707,
      "드래": 7708,
      "사무": 7709,
      "이루": 7710,
      "클래": 7711,
      "패스": 7712,
      "포스": 7713,
      "##우스": 7714,
      "##받다": 7715,
      "진짜로": 7716,
      "ᆯ게요": 7717,
      "긴박": 7718,
      "김치": 7719,
      "난잡": 7720,
      "로드": 7721,
      "손색": 7722,
      "올드": 7723,
      "준비": 7724,
      "테이": 7725,
      "평균": 7726,
      "##나이": 7727,
      "##들리다": 7728,
      "##강호": 7729,
      "ᆯ라고": 7730,
      "쓸데없이": 7731,
      "어우러지다": 7732,
      "25": 7733,
      "거장": 7734,
      "네티즌": 7735,
      "단체": 7736,
      "당황": 7737,
      "묘하다": 7738,
      "베끼다": 7739,
      "애초": 7740,
      "위로": 7741,
      "유럽": 7742,
      "주윤": 7743,
      "피아": 7744,
      "##치노": 7745,
      "##루즈": 7746,
      "##스키": 7747,
      "##드시": 7748,
      "##올리다": 7749,
      "주윤발": 7750,
      "kbs": 7751,
      "달콤": 7752,
      "든지": 7753,
      "떨어": 7754,
      "말투": 7755,
      "무대": 7756,
      "반드시": 7757,
      "부담": 7758,
      "분량": 7759,
      "수면": 7760,
      "아끼다": 7761,
      "엑스": 7762,
      "위원": 7763,
      "으라": 7764,
      "임창": 7765,
      "차원": 7766,
      "##정우": 7767,
      "##is": 7768,
      "##오글": 7769,
      "이제서야": 7770,
      "##oooo": 7771,
      "리얼리티": 7772,
      "흥미진진하다": 7773,
      "스포츠": 7774,
      "박진감": 7775,
      "임창정": 7776,
      "남성": 7777,
      "등록": 7778,
      "루즈": 7779,
      "명배우": 7780,
      "박중": 7781,
      "발음": 7782,
      "서양": 7783,
      "스톤": 7784,
      "양아": 7785,
      "의지": 7786,
      "이전": 7787,
      "처절": 7788,
      "천국": 7789,
      "파이": 7790,
      "혐오": 7791,
      "희대": 7792,
      "##둥이": 7793,
      "##zz": 7794,
      "아무튼": 7795,
      "2000": 7796,
      "사이코": 7797,
      "우려먹다": 7798,
      "호기심": 7799,
      "박중훈": 7800,
      "구조": 7801,
      "군인": 7802,
      "는대": 7803,
      "로빈": 7804,
      "분장": 7805,
      "블루": 7806,
      "정부": 7807,
      "##영상": 7808,
      "혹시나": 7809,
      "심각하다": 7810,
      "하지원": 7811,
      "16": 7812,
      "bad": 7813,
      "데뷔": 7814,
      "도무지": 7815,
      "빨갱": 7816,
      "언젠": 7817,
      "에효": 7818,
      "저급": 7819,
      "진수": 7820,
      "하정우": 7821,
      "허허": 7822,
      "홍상수": 7823,
      "잖아요": 7824,
      "장애인": 7825,
      "베드신": 7826,
      "양아치": 7827,
      "빨갱이": 7828,
      "언젠가": 7829,
      "극복": 7830,
      "기존": 7831,
      "동영상": 7832,
      "마약": 7833,
      "막다": 7834,
      "무게": 7835,
      "뭥미": 7836,
      "별반": 7837,
      "비중": 7838,
      "스피": 7839,
      "압도": 7840,
      "이준": 7841,
      "잡히다": 7842,
      "장진": 7843,
      "##미다": 7844,
      "##랜드": 7845,
      "##놀드": 7846,
      "만화책": 7847,
      "나이트": 7848,
      "충분하다": 7849,
      "쓸데없다": 7850,
      "ㅎㄷㄷ": 7851,
      "각색": 7852,
      "겁나다": 7853,
      "게스트": 7854,
      "고어": 7855,
      "극단": 7856,
      "김정": 7857,
      "나레이션": 7858,
      "부정": 7859,
      "아놀드": 7860,
      "이토록": 7861,
      "인류": 7862,
      "짜집다": 7863,
      "취하다": 7864,
      "키드": 7865,
      "평화": 7866,
      "자동차": 7867,
      "드래곤": 7868,
      "갈리다": 7869,
      "기적": 7870,
      "김지": 7871,
      "높이다": 7872,
      "명대사": 7873,
      "미녀": 7874,
      "민폐": 7875,
      "어거지": 7876,
      "유행": 7877,
      "하여": 7878,
      "##부터": 7879,
      "##어버리다": 7880,
      "개그맨": 7881,
      "으려고": 7882,
      "우뢰매": 7883,
      "re": 7884,
      "개노잼": 7885,
      "고뇌": 7886,
      "김희": 7887,
      "도둑": 7888,
      "드디어": 7889,
      "사용": 7890,
      "실감": 7891,
      "원조": 7892,
      "전화": 7893,
      "출신": 7894,
      "하도": 7895,
      "ㅋㅋㅋㅋㅋㅋㅋㅋㅋ": 7896,
      "최소한": 7897,
      "강간": 7898,
      "글자": 7899,
      "기타": 7900,
      "단점": 7901,
      "바닥": 7902,
      "버스": 7903,
      "베리": 7904,
      "섞다": 7905,
      "윌리": 7906,
      "의상": 7907,
      "인종": 7908,
      "저거": 7909,
      "존스": 7910,
      "한숨": 7911,
      "##그럽다": 7912,
      "재밋어요": 7913,
      "고등학교": 7914,
      "정신병자": 7915,
      "할리우드": 7916,
      "거품": 7917,
      "김태": 7918,
      "몽환": 7919,
      "무난": 7920,
      "무식": 7921,
      "부인": 7922,
      "소피": 7923,
      "일으키다": 7924,
      "장동": 7925,
      "졸업": 7926,
      "쥐다": 7927,
      "파치노": 7928,
      "패다": 7929,
      "##맹이": 7930,
      "스타뎀": 7931,
      "범죄자": 7932,
      "이병헌": 7933,
      "17": 7934,
      "oc": 7935,
      "고인": 7936,
      "공룡": 7937,
      "나루": 7938,
      "두근": 7939,
      "선수": 7940,
      "소화": 7941,
      "애절": 7942,
      "탁월": 7943,
      "토하다": 7944,
      "흑백": 7945,
      "흡입": 7946,
      "##라노": 7947,
      "##as": 7948,
      "##영화": 7949,
      "##드라": 7950,
      "는다는": 7951,
      "경우": 7952,
      "기획": 7953,
      "깡패": 7954,
      "낭만": 7955,
      "넘넘": 7956,
      "담담": 7957,
      "담백": 7958,
      "말씀": 7959,
      "버티": 7960,
      "브라": 7961,
      "이수": 7962,
      "절망": 7963,
      "정우성": 7964,
      "죄송": 7965,
      "줄리": 7966,
      "짜릿": 7967,
      "천만": 7968,
      "평소": 7969,
      "풀리다": 7970,
      "피하다": 7971,
      "##이입": 7972,
      "ㅋㅋㅋㅋㅋㅋㅋㅋㅋㅋㅋㅋㅋㅋㅋ": 7973,
      "오프닝": 7974,
      "거대": 7975,
      "공연": 7976,
      "권력": 7977,
      "담아내다": 7978,
      "습니까": 7979,
      "여신": 7980,
      "영구": 7981,
      "이여": 7982,
      "이동": 7983,
      "쟁이": 7984,
      "치유": 7985,
      "파리": 7986,
      "##승우": 7987,
      "은근히": 7988,
      "ocn": 7989,
      "강동": 7990,
      "구역": 7991,
      "도데": 7992,
      "라스트": 7993,
      "명복": 7994,
      "버튼": 7995,
      "소개": 7996,
      "순위": 7997,
      "아담": 7998,
      "연습": 7999,
      "우선": 8000,
      "장점": 8001,
      "조르다": 8002,
      "첩보": 8003,
      "향수": 8004,
      "##ck": 8005,
      "##ow": 8006,
      "##준호": 8007,
      "감정이입": 8008,
      "어쩌면": 8009,
      "메이드": 8010,
      "제시카": 8011,
      "무너지다": 8012,
      "mov": 8013,
      "겉멋": 8014,
      "과대": 8015,
      "끊다": 8016,
      "놀래다": 8017,
      "는군요": 8018,
      "박신": 8019,
      "박히다": 8020,
      "발랄": 8021,
      "불안": 8022,
      "송강호": 8023,
      "애정": 8024,
      "에라": 8025,
      "역량": 8026,
      "오우": 8027,
      "자르다": 8028,
      "정당": 8029,
      "중년": 8030,
      "회사": 8031,
      "##al": 8032,
      "##머리": 8033,
      "넘어서다": 8034,
      "화장실": 8035,
      "망가지다": 8036,
      "배급사": 8037,
      "이루어지다": 8038,
      "버티다": 8039,
      "도데체": 8040,
      "고문": 8041,
      "그럴": 8042,
      "깨알": 8043,
      "끊기다": 8044,
      "남아": 8045,
      "다세포": 8046,
      "매기다": 8047,
      "민족": 8048,
      "밀려오다": 8049,
      "반영": 8050,
      "받아": 8051,
      "상당": 8052,
      "시종": 8053,
      "줄다": 8054,
      "클리": 8055,
      "황정": 8056,
      "##이라": 8057,
      "##스크": 8058,
      "##어스": 8059,
      "##숭이": 8060,
      "##레이드": 8061,
      "2012": 8062,
      "오글오글": 8063,
      "끝내주다": 8064,
      "♡♡": 8065,
      "ㅜㅠ": 8066,
      "놀이": 8067,
      "늘리다": 8068,
      "마르": 8069,
      "만세": 8070,
      "매미": 8071,
      "민주": 8072,
      "반지": 8073,
      "에다가": 8074,
      "엘리": 8075,
      "즐거": 8076,
      "지식": 8077,
      "직업": 8078,
      "파격": 8079,
      "혁명": 8080,
      "##nd": 8081,
      "지루함": 8082,
      "cgv": 8083,
      "황당하다": 8084,
      "비행기": 8085,
      "가히": 8086,
      "공중": 8087,
      "녹다": 8088,
      "매끄럽다": 8089,
      "뮤직": 8090,
      "붙다": 8091,
      "비하": 8092,
      "소통": 8093,
      "쏟다": 8094,
      "엑소": 8095,
      "월드": 8096,
      "자마": 8097,
      "잼나": 8098,
      "클라": 8099,
      "튀다": 8100,
      "향연": 8101,
      "##려주다": 8102,
      "##은이": 8103,
      "198": 8104,
      "똑같이": 8105,
      "심심하다": 8106,
      "best": 8107,
      "류승범": 8108,
      "유덕화": 8109,
      "나루토": 8110,
      "wh": 8111,
      "각자": 8112,
      "개똥": 8113,
      "교회": 8114,
      "꿀잼": 8115,
      "누르다": 8116,
      "는군": 8117,
      "대부": 8118,
      "도중": 8119,
      "디카": 8120,
      "려나": 8121,
      "브래": 8122,
      "심사": 8123,
      "엽기": 8124,
      "위트": 8125,
      "유리": 8126,
      "일베": 8127,
      "재방": 8128,
      "저리": 8129,
      "절제": 8130,
      "정리": 8131,
      "추다": 8132,
      "킬러": 8133,
      "##지현": 8134,
      "##ery": 8135,
      "어지럽다": 8136,
      "자마자": 8137,
      "격투": 8138,
      "녀석": 8139,
      "뒤죽": 8140,
      "떠올리다": 8141,
      "매번": 8142,
      "박다": 8143,
      "방해": 8144,
      "부작": 8145,
      "부자": 8146,
      "부활": 8147,
      "상식": 8148,
      "세다": 8149,
      "신하": 8150,
      "신인": 8151,
      "앞서다": 8152,
      "옳다": 8153,
      "재수": 8154,
      "지내다": 8155,
      "찬양": 8156,
      "친절": 8157,
      "피터": 8158,
      "형식": 8159,
      "##박죽": 8160,
      "##대기": 8161,
      "하나님": 8162,
      "한국판": 8163,
      "아이언": 8164,
      "평범하다": 8165,
      "뜬금없이": 8166,
      "하이틴": 8167,
      "뒤죽박죽": 8168,
      "it": 8169,
      "고독": 8170,
      "공유": 8171,
      "딸리다": 8172,
      "명불": 8173,
      "모욕": 8174,
      "무서": 8175,
      "배꼽": 8176,
      "백인": 8177,
      "부산": 8178,
      "선사": 8179,
      "연관": 8180,
      "예측": 8181,
      "절로": 8182,
      "처리": 8183,
      "크루즈": 8184,
      "##란티": 8185,
      "##브리": 8186,
      "##유리": 8187,
      "##테리": 8188,
      "##허전": 8189,
      "ᆫ다니": 8190,
      "초반부": 8191,
      "스파이더": 8192,
      "미스터리": 8193,
      "강동원": 8194,
      "movie": 8195,
      "받아들이다": 8196,
      "신하균": 8197,
      "명불허전": 8198,
      "is": 8199,
      "기사": 8200,
      "꺼지다": 8201,
      "너희": 8202,
      "노인": 8203,
      "마법": 8204,
      "바치다": 8205,
      "본질": 8206,
      "뿌리다": 8207,
      "성의": 8208,
      "신화": 8209,
      "애틋": 8210,
      "에드": 8211,
      "외치다": 8212,
      "전성기": 8213,
      "절대로": 8214,
      "크레딧": 8215,
      "키아": 8216,
      "피트": 8217,
      "##아리": 8218,
      "##평가": 8219,
      "##나가다": 8220,
      "##수다": 8221,
      "##예진": 8222,
      "영화사": 8223,
      "한심하다": 8224,
      "##ㅜㅜㅜㅜ": 8225,
      "흡입력": 8226,
      "ㅈㄴ": 8227,
      "객관": 8228,
      "고증": 8229,
      "구분": 8230,
      "국어": 8231,
      "난무": 8232,
      "대상": 8233,
      "더군": 8234,
      "변신": 8235,
      "불과": 8236,
      "뻔뻔": 8237,
      "스필": 8238,
      "암울": 8239,
      "운동": 8240,
      "원주": 8241,
      "이러": 8242,
      "저지르다": 8243,
      "전도": 8244,
      "지옥": 8245,
      "짬뽕": 8246,
      "칭찬": 8247,
      "특집": 8248,
      "##프리오": 8249,
      "##감독": 8250,
      "##워즈": 8251,
      "##추어": 8252,
      "오글거": 8253,
      "very": 8254,
      "광기": 8255,
      "달라지다": 8256,
      "데스": 8257,
      "돕다": 8258,
      "려다가": 8259,
      "믿음": 8260,
      "바르다": 8261,
      "반응": 8262,
      "비록": 8263,
      "아바": 8264,
      "안기다": 8265,
      "어정": 8266,
      "억울": 8267,
      "왕조": 8268,
      "이종": 8269,
      "이승": 8270,
      "콜린": 8271,
      "##일관": 8272,
      "##부지": 8273,
      "##로움": 8274,
      "##세우다": 8275,
      "##려움": 8276,
      "##상우": 8277,
      "##굿굿": 8278,
      "적당하다": 8279,
      "설레이다": 8280,
      "나타내다": 8281,
      "##란티노": 8282,
      "어정쩡": 8283,
      "더러": 8284,
      "덩어리": 8285,
      "드니": 8286,
      "로망": 8287,
      "본능": 8288,
      "성형": 8289,
      "애잔": 8290,
      "우디": 8291,
      "워낙": 8292,
      "조건": 8293,
      "징그럽다": 8294,
      "쯧쯧": 8295,
      "총체": 8296,
      "추가": 8297,
      "타란티노": 8298,
      "##누라": 8299,
      "##라기": 8300,
      "##ay": 8301,
      "##le": 8302,
      "##ic": 8303,
      "##시스": 8304,
      "##저리": 8305,
      "##찬다": 8306,
      "아름다": 8307,
      "제작자": 8308,
      "피아노": 8309,
      "스파이더맨": 8310,
      "가까": 8311,
      "권상우": 8312,
      "느냐": 8313,
      "닫다": 8314,
      "든가": 8315,
      "먹칠": 8316,
      "미학": 8317,
      "베일": 8318,
      "아카": 8319,
      "어리": 8320,
      "원숭이": 8321,
      "음향": 8322,
      "재앙": 8323,
      "창피": 8324,
      "천사": 8325,
      "트랜": 8326,
      "호불": 8327,
      "후지다": 8328,
      "##ig": 8329,
      "##워드": 8330,
      "재밋음": 8331,
      "소중하다": 8332,
      "아마추어": 8333,
      "데이빗": 8334,
      "ᆯ께요": 8335,
      "시종일관": 8336,
      "디카프리오": 8337,
      "스필버그": 8338,
      "관리": 8339,
      "괜찬다": 8340,
      "기괴": 8341,
      "꼬이다": 8342,
      "닥터": 8343,
      "마시다": 8344,
      "머릿": 8345,
      "무기": 8346,
      "섞이다": 8347,
      "소지": 8348,
      "시험": 8349,
      "어째": 8350,
      "인식": 8351,
      "작화": 8352,
      "짜이다": 8353,
      "짱구": 8354,
      "차승": 8355,
      "최후": 8356,
      "화질": 8357,
      "##아지": 8358,
      "##일러": 8359,
      "##지민": 8360,
      "##빠지다": 8361,
      "##더기": 8362,
      "##늦다": 8363,
      "ㅜㅜㅜ": 8364,
      "니콜라스": 8365,
      "씁쓸하다": 8366,
      "일반인": 8367,
      "키아누": 8368,
      "아름다움": 8369,
      "호불호": 8370,
      "간지": 8371,
      "고딩": 8372,
      "남친": 8373,
      "답니다": 8374,
      "리암": 8375,
      "마녀": 8376,
      "맛있다": 8377,
      "매다": 8378,
      "별거": 8379,
      "사과": 8380,
      "상징": 8381,
      "소유": 8382,
      "쓸쓸": 8383,
      "에다": 8384,
      "여고": 8385,
      "이탈": 8386,
      "인권": 8387,
      "자라다": 8388,
      "찬사": 8389,
      "초월": 8390,
      "코스": 8391,
      "태국": 8392,
      "##이지": 8393,
      "##시대": 8394,
      "##갈리다": 8395,
      "액션물": 8396,
      "스타워즈": 8397,
      "외국인": 8398,
      "오로지": 8399,
      "거부감": 8400,
      "떨어뜨리다": 8401,
      "남아돌다": 8402,
      "즐거움": 8403,
      "sh": 8404,
      "견디다": 8405,
      "고작": 8406,
      "끌어": 8407,
      "되돌": 8408,
      "미션": 8409,
      "본격": 8410,
      "신부": 8411,
      "알아보다": 8412,
      "이별": 8413,
      "장소": 8414,
      "집어": 8415,
      "커버": 8416,
      "페이크": 8417,
      "호흡": 8418,
      "홀로": 8419,
      "##어나오다": 8420,
      "##오오": 8421,
      "##펙트": 8422,
      "##랗다": 8423,
      "출연자": 8424,
      "ㅋㅋㅋㅋㅋㅋㅋㅋㅋㅋㅋㅋㅋㅋㅋㅋㅋㅋㅋ": 8425,
      "슈퍼맨": 8426,
      "가까이": 8427,
      "트랜스": 8428,
      "bb": 8429,
      "com": 8430,
      "vs": 8431,
      "뉴스": 8432,
      "능가": 8433,
      "당장": 8434,
      "또라이": 8435,
      "레옹": 8436,
      "마찬": 8437,
      "벌어지다": 8438,
      "비쥬": 8439,
      "수록": 8440,
      "승부": 8441,
      "쏘우": 8442,
      "엄정": 8443,
      "올라": 8444,
      "이서": 8445,
      "정점": 8446,
      "지하": 8447,
      "한석": 8448,
      "황금": 8449,
      "##트리다": 8450,
      "##동생": 8451,
      "##성이": 8452,
      "##인드": 8453,
      "##듬다": 8454,
      "다시금": 8455,
      "파워레인": 8456,
      "오리지": 8457,
      "차승원": 8458,
      "마찬가지": 8459,
      "비쥬얼": 8460,
      "한석규": 8461,
      "가짜": 8462,
      "강아지": 8463,
      "고봉": 8464,
      "꼬다": 8465,
      "두렵다": 8466,
      "뒤늦다": 8467,
      "떨리다": 8468,
      "말리다": 8469,
      "먹이다": 8470,
      "불법": 8471,
      "시체": 8472,
      "실사": 8473,
      "안쓰": 8474,
      "알아": 8475,
      "어수": 8476,
      "연상": 8477,
      "이래": 8478,
      "클로": 8479,
      "펼치다": 8480,
      "활용": 8481,
      "##tt": 8482,
      "##보내다": 8483,
      "##효주": 8484,
      "##간히": 8485,
      "##떨어지다": 8486,
      "더라고": 8487,
      "미스테리": 8488,
      "가르치다": 8489,
      "클래식": 8490,
      "아바타": 8491,
      "깜놀": 8492,
      "눈치": 8493,
      "매주": 8494,
      "문득": 8495,
      "섬뜩": 8496,
      "싱겁다": 8497,
      "어쨌": 8498,
      "올레": 8499,
      "위주": 8500,
      "재탕": 8501,
      "조정": 8502,
      "토니": 8503,
      "패션": 8504,
      "하드": 8505,
      "흥분": 8506,
      "##더니": 8507,
      "어린애": 8508,
      "수면제": 8509,
      "안쓰럽다": 8510,
      "검사": 8511,
      "께서": 8512,
      "다녀": 8513,
      "댄스": 8514,
      "디자": 8515,
      "병원": 8516,
      "새삼": 8517,
      "어떠": 8518,
      "여기다": 8519,
      "연주": 8520,
      "왕자": 8521,
      "잭슨": 8522,
      "조지": 8523,
      "지원": 8524,
      "지극": 8525,
      "청년": 8526,
      "포함": 8527,
      "포켓": 8528,
      "핸드": 8529,
      "혼란": 8530,
      "회상": 8531,
      "##진창": 8532,
      "##던데": 8533,
      "##애다": 8534,
      "##10": 8535,
      "ㅋㅋㅋㅋㅋㅋㅋㅋㅋㅋ": 8536,
      "엉망진창": 8537,
      "훈훈하다": 8538,
      "드러내다": 8539,
      "김수현": 8540,
      "브래드": 8541,
      "드니로": 8542,
      "엄정화": 8543,
      "pd": 8544,
      "괴롭다": 8545,
      "구경": 8546,
      "납득": 8547,
      "마블": 8548,
      "목사": 8549,
      "박시": 8550,
      "보세": 8551,
      "브로": 8552,
      "없애다": 8553,
      "역작": 8554,
      "열라": 8555,
      "오직": 8556,
      "오해": 8557,
      "왕가": 8558,
      "외면": 8559,
      "으러": 8560,
      "조기": 8561,
      "주먹": 8562,
      "찌다": 8563,
      "차갑다": 8564,
      "참나": 8565,
      "크로": 8566,
      "타인": 8567,
      "향기": 8568,
      "##시오": 8569,
      "##드리다": 8570,
      "##들러": 8571,
      "다는데": 8572,
      "던데요": 8573,
      "2015": 8574,
      "다이하": 8575,
      "클라라": 8576,
      "어수선": 8577,
      "av": 8578,
      "게끔": 8579,
      "글다": 8580,
      "나비": 8581,
      "농담": 8582,
      "동감": 8583,
      "레오": 8584,
      "미달": 8585,
      "보석": 8586,
      "아메": 8587,
      "언어": 8588,
      "온갖": 8589,
      "이지": 8590,
      "인연": 8591,
      "잃어버리다": 8592,
      "주인": 8593,
      "참여": 8594,
      "춤추다": 8595,
      "치료": 8596,
      "택시": 8597,
      "한효주": 8598,
      "##am": 8599,
      "##태현": 8600,
      "##쳐지다": 8601,
      "유치원": 8602,
      "진부하다": 8603,
      "세계관": 8604,
      "감명깊다": 8605,
      "스페인": 8606,
      "다녀오다": 8607,
      "포켓몬": 8608,
      "다이하드": 8609,
      "ᆫ들": 8610,
      "ᆫ대": 8611,
      "거듭": 8612,
      "고요": 8613,
      "고수": 8614,
      "관대": 8615,
      "그대": 8616,
      "기록": 8617,
      "덥다": 8618,
      "마누라": 8619,
      "미술": 8620,
      "박찬": 8621,
      "방향": 8622,
      "번역": 8623,
      "세트": 8624,
      "소품": 8625,
      "수사": 8626,
      "어차": 8627,
      "재치": 8628,
      "정사": 8629,
      "주위": 8630,
      "지상": 8631,
      "질문": 8632,
      "케미": 8633,
      "팍팍": 8634,
      "픽사": 8635,
      "학살": 8636,
      "허구": 8637,
      "환자": 8638,
      "##아다니다": 8639,
      "##니스": 8640,
      "##구라": 8641,
      "##ed": 8642,
      "##동자": 8643,
      "##릭스": 8644,
      "기대다": 8645,
      "빠져들다": 8646,
      "테이큰": 8647,
      "머릿속": 8648,
      "가져": 8649,
      "가만": 8650,
      "각각": 8651,
      "고스": 8652,
      "그동안": 8653,
      "기승": 8654,
      "멘탈": 8655,
      "모니": 8656,
      "시골": 8657,
      "신다": 8658,
      "아리다": 8659,
      "엉뚱": 8660,
      "욕먹다": 8661,
      "정화": 8662,
      "제국": 8663,
      "줄이다": 8664,
      "차분": 8665,
      "피곤": 8666,
      "하아": 8667,
      "##지마": 8668,
      "##id": 8669,
      "##ct": 8670,
      "##더스": 8671,
      "##라이즈": 8672,
      "아기자기": 8673,
      "김혜수": 8674,
      "윌리엄": 8675,
      "왕조현": 8676,
      "어쨌든": 8677,
      "어차피": 8678,
      "99": 8679,
      "강요": 8680,
      "고도": 8681,
      "과도": 8682,
      "긋다": 8683,
      "나서다": 8684,
      "낯설": 8685,
      "도라": 8686,
      "드립": 8687,
      "맴돌다": 8688,
      "반감": 8689,
      "벅차다": 8690,
      "빠순": 8691,
      "상큼": 8692,
      "색채": 8693,
      "서정": 8694,
      "스콧": 8695,
      "시민": 8696,
      "안녕": 8697,
      "언론": 8698,
      "여지": 8699,
      "옮기다": 8700,
      "완젼": 8701,
      "유혹": 8702,
      "이은": 8703,
      "작정": 8704,
      "직장": 8705,
      "짙다": 8706,
      "투성이": 8707,
      "트라": 8708,
      "##프레": 8709,
      "##동근": 8710,
      "##ㅎㅎㅎㅎ": 8711,
      "타이틀": 8712,
      "최민수": 8713,
      "김희선": 8714,
      "낯설다": 8715,
      "mc": 8716,
      "고치다": 8717,
      "공허": 8718,
      "구석": 8719,
      "국산": 8720,
      "나열": 8721,
      "냉정": 8722,
      "람보": 8723,
      "러셀": 8724,
      "부수다": 8725,
      "색깔": 8726,
      "설경": 8727,
      "속도": 8728,
      "수십": 8729,
      "신나다": 8730,
      "음모": 8731,
      "이순": 8732,
      "이웃": 8733,
      "저주": 8734,
      "지대": 8735,
      "해외": 8736,
      "환장": 8737,
      "##리의": 8738,
      "##il": 8739,
      "##스틱": 8740,
      "##데이": 8741,
      "##저분": 8742,
      "##★★": 8743,
      "다니엘": 8744,
      "미국식": 8745,
      "데뷔작": 8746,
      "지극히": 8747,
      "박찬욱": 8748,
      "28": 8749,
      "in": 8750,
      "가을": 8751,
      "고소": 8752,
      "군더": 8753,
      "김명": 8754,
      "누님": 8755,
      "대전": 8756,
      "대역": 8757,
      "된장": 8758,
      "때로": 8759,
      "로마": 8760,
      "마을": 8761,
      "모방": 8762,
      "모독": 8763,
      "복선": 8764,
      "서사": 8765,
      "세여": 8766,
      "손꼽": 8767,
      "손예진": 8768,
      "수정": 8769,
      "심다": 8770,
      "아까": 8771,
      "여유": 8772,
      "엮다": 8773,
      "올리": 8774,
      "우습": 8775,
      "작전": 8776,
      "적나라": 8777,
      "전지현": 8778,
      "절반": 8779,
      "졸리": 8780,
      "지독": 8781,
      "차태현": 8782,
      "찾아오다": 8783,
      "커피": 8784,
      "피식": 8785,
      "픽션": 8786,
      "합치다": 8787,
      "흔들다": 8788,
      "##그리": 8789,
      "인상깊다": 8790,
      "카메론": 8791,
      "시원하다": 8792,
      "아오이": 8793,
      "##ㅋㅋㅋㅋㅋㅋㅋㅋㅋㅋㅋㅋㅋㅋㅋㅋㅋㅋㅋㅋㅋㅋㅋㅋㅋㅋㅋㅋㅋㅋㅋㅋ": 8794,
      "고등학생": 8795,
      "원주율": 8796,
      "설경구": 8797,
      "우습다": 8798,
      "24": 8799,
      "lov": 8800,
      "xx": 8801,
      "개발": 8802,
      "개꿀잼": 8803,
      "경기": 8804,
      "고질": 8805,
      "극본": 8806,
      "납치": 8807,
      "마구": 8808,
      "멀리": 8809,
      "미니": 8810,
      "밀라": 8811,
      "수다": 8812,
      "수치": 8813,
      "스펙": 8814,
      "스틸": 8815,
      "아프": 8816,
      "열광": 8817,
      "열리다": 8818,
      "오마": 8819,
      "완죤": 8820,
      "우롱": 8821,
      "울림": 8822,
      "위안": 8823,
      "유승": 8824,
      "자격": 8825,
      "저희": 8826,
      "전라도": 8827,
      "접다": 8828,
      "조명": 8829,
      "준거": 8830,
      "찾아가다": 8831,
      "취급": 8832,
      "컬트": 8833,
      "흥하다": 8834,
      "힙합": 8835,
      "##포머": 8836,
      "##바로": 8837,
      "##드리": 8838,
      "##비아": 8839,
      "2013": 8840,
      "크리스찬": 8841,
      "레이첼": 8842,
      "이따구": 8843,
      "이정재": 8844,
      "사무라이": 8845,
      "마르소": 8846,
      "군더더기": 8847,
      "so": 8848,
      "가식": 8849,
      "감수": 8850,
      "개소리": 8851,
      "고향": 8852,
      "괴수": 8853,
      "귀찮다": 8854,
      "금지": 8855,
      "김선": 8856,
      "깨끗": 8857,
      "낚다": 8858,
      "논하다": 8859,
      "떠들다": 8860,
      "멤버": 8861,
      "묵직": 8862,
      "묻어나다": 8863,
      "물다": 8864,
      "미야": 8865,
      "사장": 8866,
      "사나이": 8867,
      "생존": 8868,
      "오페": 8869,
      "우왕": 8870,
      "유익": 8871,
      "의견": 8872,
      "잠자": 8873,
      "장군": 8874,
      "제왕": 8875,
      "조심": 8876,
      "주관": 8877,
      "증명": 8878,
      "지배": 8879,
      "최선": 8880,
      "추악": 8881,
      "클라스": 8882,
      "홧팅": 8883,
      "흠잡다": 8884,
      "##버스": 8885,
      "##구리": 8886,
      "##에몽": 8887,
      "##무비": 8888,
      "##사미": 8889,
      "##은경": 8890,
      "시간대": 8891,
      "oooo": 8892,
      "진지하다": 8893,
      "오랫동안": 8894,
      "생생하다": 8895,
      "엑스맨": 8896,
      "그럴싸": 8897,
      "황정민": 8898,
      "올라오다": 8899,
      "간단": 8900,
      "공식": 8901,
      "구혜": 8902,
      "기쁘다": 8903,
      "나마": 8904,
      "노무": 8905,
      "눕다": 8906,
      "멀쩡": 8907,
      "밀다": 8908,
      "방황": 8909,
      "버무": 8910,
      "본성": 8911,
      "불다": 8912,
      "비참": 8913,
      "서스": 8914,
      "시장": 8915,
      "애인": 8916,
      "얼다": 8917,
      "엠마": 8918,
      "이외": 8919,
      "재주": 8920,
      "젊은이": 8921,
      "정석": 8922,
      "집단": 8923,
      "출현": 8924,
      "커녕": 8925,
      "쿵푸": 8926,
      "피디": 8927,
      "학창": 8928,
      "한정": 8929,
      "흑흑": 8930,
      "흔들리다": 8931,
      "##라고": 8932,
      "##로로": 8933,
      "##타쿠": 8934,
      "##스텔": 8935,
      "##매이션": 8936,
      "##왕국": 8937,
      "##저냥": 8938,
      "##갛다": 8939,
      "##남다": 8940,
      "##본색": 8941,
      "##★☆": 8942,
      "아이유": 8943,
      "공포감": 8944,
      "다운로드": 8945,
      "케이지": 8946,
      "이따위": 8947,
      "겨울왕국": 8948,
      "살아남다": 8949,
      "이탈리아": 8950,
      "왕가위": 8951,
      "도라에몽": 8952,
      "오페라": 8953,
      "ㄱㄱ": 8954,
      "가관": 8955,
      "개콘": 8956,
      "깔다": 8957,
      "끝판": 8958,
      "난국": 8959,
      "내놓다": 8960,
      "내려가다": 8961,
      "놀래": 8962,
      "띄다": 8963,
      "로보": 8964,
      "마마": 8965,
      "막상": 8966,
      "모순": 8967,
      "배려": 8968,
      "부여": 8969,
      "비싸다": 8970,
      "빨갛다": 8971,
      "새록": 8972,
      "아아": 8973,
      "아가": 8974,
      "에바": 8975,
      "오지": 8976,
      "외로움": 8977,
      "원피스": 8978,
      "윌리스": 8979,
      "유우": 8980,
      "이입": 8981,
      "일찍": 8982,
      "장혁": 8983,
      "재현": 8984,
      "적극": 8985,
      "주원": 8986,
      "증말": 8987,
      "쪽팔": 8988,
      "통수": 8989,
      "틀림": 8990,
      "푸다": 8991,
      "후기": 8992,
      "##크스": 8993,
      "##플린": 8994,
      "##모로": 8995,
      "##저것": 8996,
      "##렌스": 8997,
      "##혀지다": 8998,
      "##켜보다": 8999,
      "##넣다": 9000,
      "그냥저냥": 9001,
      "이것저것": 9002,
      "라는데": 9003,
      "는다고": 9004,
      "##스트라": 9005,
      "영웅본색": 9006,
      "도망가다": 9007,
      "살아나다": 9008,
      "트랜스포머": 9009,
      "놀래키다": 9010,
      "쪽팔리다": 9011,
      "me": 9012,
      "ᆯ세": 9013,
      "ᆯ걸": 9014,
      "가난": 9015,
      "감옥": 9016,
      "경제": 9017,
      "고급": 9018,
      "국제": 9019,
      "김구라": 9020,
      "꺼내다": 9021,
      "뚝뚝": 9022,
      "마틴": 9023,
      "마스터": 9024,
      "박사": 9025,
      "성찰": 9026,
      "심정": 9027,
      "쓰이다": 9028,
      "여튼": 9029,
      "우승": 9030,
      "유령": 9031,
      "이태": 9032,
      "이혼": 9033,
      "채플린": 9034,
      "출발": 9035,
      "파이팅": 9036,
      "팝콘": 9037,
      "흐지": 9038,
      "히스": 9039,
      "##란히": 9040,
      "##로그": 9041,
      "##im": 9042,
      "##진희": 9043,
      "##미스": 9044,
      "##비스": 9045,
      "##데미": 9046,
      "##새록": 9047,
      "##뜨다": 9048,
      "##잖다": 9049,
      "는데요": 9050,
      "재밋어": 9051,
      "여러모로": 9052,
      "197": 9053,
      "19금": 9054,
      "관람객": 9055,
      "분명히": 9056,
      "아류작": 9057,
      "스피드": 9058,
      "드래곤볼": 9059,
      "소지섭": 9060,
      "love": 9061,
      "새록새록": 9062,
      "st": 9063,
      "경의": 9064,
      "그린": 9065,
      "그렇": 9066,
      "극혐": 9067,
      "김윤": 9068,
      "꾸미다": 9069,
      "눈요": 9070,
      "는디": 9071,
      "니슨": 9072,
      "데드": 9073,
      "돌려주다": 9074,
      "따스": 9075,
      "땜시": 9076,
      "록키": 9077,
      "마케": 9078,
      "맑다": 9079,
      "메리": 9080,
      "방사": 9081,
      "변호": 9082,
      "삼다": 9083,
      "신데": 9084,
      "작년": 9085,
      "잘나다": 9086,
      "조승우": 9087,
      "증거": 9088,
      "지저분": 9089,
      "지켜보다": 9090,
      "흑역": 9091,
      "##주일": 9092,
      "##리즘": 9093,
      "##바리": 9094,
      "##들리": 9095,
      "##재미": 9096,
      "##서트": 9097,
      "##렐라": 9098,
      "아이고": 9099,
      "살인자": 9100,
      "ㅋㅋㅋㅋㅋㅋㅋㅋㅋㅋㅋㅋ": 9101,
      "중반부": 9102,
      "로버츠": 9103,
      "오로라": 9104,
      "최민식": 9105,
      "장동건": 9106,
      "아카데미": 9107,
      "이은주": 9108,
      "##★☆★☆": 9109,
      "흑역사": 9110,
      "300": 9111,
      "간직": 9112,
      "감추다": 9113,
      "고리": 9114,
      "기업": 9115,
      "단역": 9116,
      "때려": 9117,
      "라구": 9118,
      "메다": 9119,
      "불만": 9120,
      "사망": 9121,
      "성숙": 9122,
      "소수": 9123,
      "오인": 9124,
      "장근": 9125,
      "종합": 9126,
      "줄리아": 9127,
      "지지": 9128,
      "지브리": 9129,
      "집안": 9130,
      "플레이": 9131,
      "한예": 9132,
      "허탈": 9133,
      "##우치다": 9134,
      "##라지": 9135,
      "##스틴": 9136,
      "##dd": 9137,
      "##사이": 9138,
      "##노답": 9139,
      "##관계": 9140,
      "##저나": 9141,
      "한국어": 9142,
      "애니매이션": 9143,
      "예술가": 9144,
      "따듯하다": 9145,
      "키드먼": 9146,
      "에드워드": 9147,
      "##리의리의": 9148,
      "구혜선": 9149,
      "흐지부지": 9150,
      "신데렐라": 9151,
      "장근석": 9152,
      "sm": 9153,
      "sbs": 9154,
      "ᆫ단": 9155,
      "강호": 9156,
      "경이": 9157,
      "경악": 9158,
      "덜덜": 9159,
      "데미": 9160,
      "또는": 9161,
      "라며": 9162,
      "명확": 9163,
      "밀리다": 9164,
      "밉다": 9165,
      "법정": 9166,
      "브리": 9167,
      "빙판": 9168,
      "샤론": 9169,
      "여왕": 9170,
      "오만": 9171,
      "일일": 9172,
      "자아": 9173,
      "장미": 9174,
      "절묘": 9175,
      "지니다": 9176,
      "진진": 9177,
      "추구": 9178,
      "침묵": 9179,
      "태양": 9180,
      "파트": 9181,
      "파악": 9182,
      "한동안": 9183,
      "할배": 9184,
      "행위": 9185,
      "##구다": 9186,
      "##러티브": 9187,
      "##비다": 9188,
      "##비치": 9189,
      "##실히": 9190,
      "1000": 9191,
      "는다면": 9192,
      "정신없다": 9193,
      "미국인": 9194,
      "그나저나": 9195,
      "ㅋㅋㅋㅋㅋㅋㅋㅋㅋㅋㅋㅋㅋ": 9196,
      "는구만": 9197,
      "123": 9198,
      "산만하다": 9199,
      "상관없다": 9200,
      "35": 9201,
      "과잉": 9202,
      "기어": 9203,
      "난감": 9204,
      "내보내다": 9205,
      "노골": 9206,
      "노리다": 9207,
      "드만": 9208,
      "레드": 9209,
      "려니": 9210,
      "모성애": 9211,
      "몰락": 9212,
      "문학": 9213,
      "미리": 9214,
      "박정": 9215,
      "스토": 9216,
      "스킵": 9217,
      "안성기": 9218,
      "양반": 9219,
      "어중간": 9220,
      "엽문": 9221,
      "왤케": 9222,
      "우월": 9223,
      "울음": 9224,
      "웅장": 9225,
      "위기": 9226,
      "일생": 9227,
      "일주일": 9228,
      "임청": 9229,
      "젖다": 9230,
      "주지": 9231,
      "지역": 9232,
      "지존": 9233,
      "체험": 9234,
      "친일": 9235,
      "카피": 9236,
      "트다": 9237,
      "홍진": 9238,
      "흔적": 9239,
      "##슬리": 9240,
      "##스턴": 9241,
      "##수정": 9242,
      "##덩이": 9243,
      "##웍스": 9244,
      "영화감독": 9245,
      "엔딩크": 9246,
      "ᆯ려면": 9247,
      "그지없다": 9248,
      "유지태": 9249,
      "드림웍스": 9250,
      "김태희": 9251,
      "클리셰": 9252,
      "전도연": 9253,
      "미야자": 9254,
      "버무리다": 9255,
      "틀림없다": 9256,
      "마케팅": 9257,
      "가시다": 9258,
      "구지": 9259,
      "깨달": 9260,
      "대비": 9261,
      "뒤집다": 9262,
      "디젤": 9263,
      "리브": 9264,
      "먹히다": 9265,
      "미장": 9266,
      "불러": 9267,
      "성경": 9268,
      "송승": 9269,
      "실상": 9270,
      "씨발": 9271,
      "안보": 9272,
      "어두": 9273,
      "연장": 9274,
      "영광": 9275,
      "으세요": 9276,
      "이중": 9277,
      "이요": 9278,
      "일관": 9279,
      "임신": 9280,
      "자위": 9281,
      "질주": 9282,
      "징징": 9283,
      "초기": 9284,
      "총격": 9285,
      "태도": 9286,
      "토끼": 9287,
      "파라노": 9288,
      "함부": 9289,
      "호화": 9290,
      "##달리다": 9291,
      "##내요": 9292,
      "##란다": 9293,
      "##오브": 9294,
      "##드로": 9295,
      "##커스": 9296,
      "##저기": 9297,
      "##혜교": 9298,
      "ㅠㅠㅠㅠㅠㅠ": 9299,
      "여기저기": 9300,
      "무리수": 9301,
      "♥♥♥♥": 9302,
      "풋풋하다": 9303,
      "조용히": 9304,
      "김민종": 9305,
      "아프리카": 9306,
      "미야자키": 9307,
      "깨달음": 9308,
      "송승헌": 9309,
      "7광": 9310,
      "my": 9311,
      "on": 9312,
      "ㅂㅅ": 9313,
      "결합": 9314,
      "경계": 9315,
      "구라": 9316,
      "기념": 9317,
      "꼽히다": 9318,
      "노튼": 9319,
      "대여": 9320,
      "도와": 9321,
      "두려움": 9322,
      "똑똑": 9323,
      "망설": 9324,
      "메인": 9325,
      "배드": 9326,
      "부드": 9327,
      "섭외": 9328,
      "신민": 9329,
      "어떡": 9330,
      "어마": 9331,
      "어유": 9332,
      "엉터리": 9333,
      "와중": 9334,
      "웹툰": 9335,
      "유사": 9336,
      "이스트": 9337,
      "장치": 9338,
      "저기": 9339,
      "조직": 9340,
      "주목": 9341,
      "찌르다": 9342,
      "트리": 9343,
      "활동": 9344,
      "히로": 9345,
      "##다보다": 9346,
      "##if": 9347,
      "##귀다": 9348,
      "##스카": 9349,
      "##고기": 9350,
      "##래도": 9351,
      "##티비": 9352,
      "##밀리": 9353,
      "더라구": 9354,
      "장난감": 9355,
      "크리스토": 9356,
      "따라하다": 9357,
      "애국심": 9358,
      "긴박감": 9359,
      "아이언맨": 9360,
      "이순신": 9361,
      "김명민": 9362,
      "눈요기": 9363,
      "미장센": 9364,
      "함부로": 9365,
      "7광구": 9366,
      "도와주다": 9367,
      "부드럽다": 9368,
      "가운": 9369,
      "가상": 9370,
      "간첩": 9371,
      "강지": 9372,
      "강제": 9373,
      "교수": 9374,
      "구도": 9375,
      "구멍": 9376,
      "글구": 9377,
      "급하다": 9378,
      "김성": 9379,
      "당당": 9380,
      "더더": 9381,
      "덮다": 9382,
      "동호": 9383,
      "등급": 9384,
      "똑바로": 9385,
      "모델": 9386,
      "베트": 9387,
      "볼일": 9388,
      "사형": 9389,
      "사귀다": 9390,
      "생략": 9391,
      "수위": 9392,
      "스카": 9393,
      "시리다": 9394,
      "신념": 9395,
      "쏟아지다": 9396,
      "엉엉": 9397,
      "역활": 9398,
      "우아": 9399,
      "저절": 9400,
      "전락": 9401,
      "정통": 9402,
      "조악": 9403,
      "중딩": 9404,
      "지도": 9405,
      "찜찜": 9406,
      "찰리": 9407,
      "초중": 9408,
      "투표": 9409,
      "학원": 9410,
      "행크스": 9411,
      "홍금": 9412,
      "환타지": 9413,
      "##아나": 9414,
      "##정신": 9415,
      "##ee": 9416,
      "##ce": 9417,
      "##바닥": 9418,
      "##스케": 9419,
      "##래셔": 9420,
      "##두고": 9421,
      "##순간": 9422,
      "이나영": 9423,
      "2003": 9424,
      "##♥♥♥♥": 9425,
      "실패작": 9426,
      "위대하다": 9427,
      "##9999": 9428,
      "정확히": 9429,
      "위원회": 9430,
      "무서움": 9431,
      "파워레인저": 9432,
      "디자인": 9433,
      "고스란히": 9434,
      "임청하": 9435,
      "저절로": 9436,
      "but": 9437,
      "do": 9438,
      "ᆷ니다": 9439,
      "ㄹㅇ": 9440,
      "감다": 9441,
      "강시": 9442,
      "계획": 9443,
      "김영": 9444,
      "김소": 9445,
      "남발": 9446,
      "노예": 9447,
      "다지만": 9448,
      "두고": 9449,
      "마르다": 9450,
      "물건": 9451,
      "미이라": 9452,
      "바쁘다": 9453,
      "박스": 9454,
      "박해": 9455,
      "밴드": 9456,
      "부각": 9457,
      "불행": 9458,
      "사전": 9459,
      "송지": 9460,
      "송혜교": 9461,
      "쓰러지다": 9462,
      "아웃": 9463,
      "양조": 9464,
      "어벤": 9465,
      "에일": 9466,
      "이르다": 9467,
      "잊혀지다": 9468,
      "정재": 9469,
      "정하다": 9470,
      "조조": 9471,
      "주옥": 9472,
      "차마": 9473,
      "쿨하다": 9474,
      "타령": 9475,
      "튀어나오다": 9476,
      "특징": 9477,
      "포드": 9478,
      "풍부": 9479,
      "한글": 9480,
      "##프트": 9481,
      "##자리": 9482,
      "##시고": 9483,
      "너무재밋": 9484,
      "따라오다": 9485,
      "신세경": 9486,
      "엑소시": 9487,
      "홍금보": 9488,
      "두고두고": 9489,
      "gt": 9490,
      "개잼": 9491,
      "검다": 9492,
      "구먼": 9493,
      "극찬": 9494,
      "깁슨": 9495,
      "꼬맹이": 9496,
      "나오": 9497,
      "노동자": 9498,
      "뉴욕": 9499,
      "도통": 9500,
      "도입": 9501,
      "돼다": 9502,
      "뭐야": 9503,
      "미흡": 9504,
      "미묘": 9505,
      "발레": 9506,
      "뿜다": 9507,
      "세우다": 9508,
      "식스": 9509,
      "쌩뚱": 9510,
      "애로": 9511,
      "에러": 9512,
      "인격": 9513,
      "일요일": 9514,
      "종류": 9515,
      "쥬라기": 9516,
      "철없다": 9517,
      "초점": 9518,
      "초능": 9519,
      "클라이": 9520,
      "학대": 9521,
      "호강": 9522,
      "흐뭇": 9523,
      "##하늘": 9524,
      "##효진": 9525,
      "##렉스": 9526,
      "마음속": 9527,
      "중국인": 9528,
      "확실하다": 9529,
      "인터뷰": 9530,
      "하하하하": 9531,
      "##00000000": 9532,
      "##ㅇㅇㅇㅇ": 9533,
      "거든요": 9534,
      "이준기": 9535,
      "과대평가": 9536,
      "공중파": 9537,
      "고질라": 9538,
      "잠자다": 9539,
      "끝판왕": 9540,
      "오인혜": 9541,
      "초능력": 9542,
      "98": 9543,
      "ch": 9544,
      "가해": 9545,
      "거칠": 9546,
      "고정": 9547,
      "고발": 9548,
      "곱씹": 9549,
      "구원": 9550,
      "그레이": 9551,
      "길이": 9552,
      "날다": 9553,
      "내세우다": 9554,
      "대가리": 9555,
      "도덕": 9556,
      "디지": 9557,
      "라스": 9558,
      "리스트": 9559,
      "마인드": 9560,
      "망상": 9561,
      "메가": 9562,
      "멘붕": 9563,
      "모호": 9564,
      "미사": 9565,
      "벗기다": 9566,
      "서방": 9567,
      "소문": 9568,
      "수상": 9569,
      "슈렉": 9570,
      "양동근": 9571,
      "에어": 9572,
      "연령": 9573,
      "오유": 9574,
      "온몸": 9575,
      "요약": 9576,
      "의학": 9577,
      "이자": 9578,
      "자비": 9579,
      "전국": 9580,
      "존중": 9581,
      "찢다": 9582,
      "총알": 9583,
      "큐브": 9584,
      "퇴보": 9585,
      "풍기다": 9586,
      "혹평": 9587,
      "##부림": 9588,
      "##지루": 9589,
      "##타다": 9590,
      "##트릭스": 9591,
      "##극장": 9592,
      "재밋엇": 9593,
      "ᆯ려는": 9594,
      "존재감": 9595,
      "2005": 9596,
      "2004": 9597,
      "난해하다": 9598,
      "런닝맨": 9599,
      "top": 9600,
      "강지환": 9601,
      "송지효": 9602,
      "양조위": 9603,
      "가해자": 9604,
      "곱씹다": 9605,
      "ᆫ디": 9606,
      "간간히": 9607,
      "강조": 9608,
      "걸치다": 9609,
      "공개": 9610,
      "긍정": 9611,
      "끊임": 9612,
      "다구": 9613,
      "디아": 9614,
      "먼지": 9615,
      "모티브": 9616,
      "몬스터": 9617,
      "물씬": 9618,
      "보호": 9619,
      "부디": 9620,
      "분석": 9621,
      "붓다": 9622,
      "브레이": 9623,
      "상투": 9624,
      "샌들러": 9625,
      "수술": 9626,
      "순정": 9627,
      "순진": 9628,
      "실종": 9629,
      "심히": 9630,
      "악플": 9631,
      "영감": 9632,
      "예매": 9633,
      "오타쿠": 9634,
      "용두": 9635,
      "윤아": 9636,
      "을려": 9637,
      "잠수": 9638,
      "장편": 9639,
      "재료": 9640,
      "전환": 9641,
      "접근": 9642,
      "주행": 9643,
      "주상": 9644,
      "짓거리": 9645,
      "창작": 9646,
      "콤비": 9647,
      "품다": 9648,
      "합리": 9649,
      "헷갈리다": 9650,
      "호텔": 9651,
      "##리스트": 9652,
      "##요미": 9653,
      "##gm": 9654,
      "##러니": 9655,
      "##으리": 9656,
      "##유미": 9657,
      "##문화": 9658,
      "##워지다": 9659,
      "영화판": 9660,
      "기대감": 9661,
      "에게서": 9662,
      "아이러니": 9663,
      "아무래도": 9664,
      "공감대": 9665,
      "제작사": 9666,
      "ㄷㄷㄷㄷ": 9667,
      "이연희": 9668,
      "코스프레": 9669,
      "에일리언": 9670,
      "거칠다": 9671,
      "500": 9672,
      "am": 9673,
      "and": 9674,
      "htt": 9675,
      "갇히다": 9676,
      "감기": 9677,
      "게리": 9678,
      "고백": 9679,
      "과감": 9680,
      "기간": 9681,
      "김대": 9682,
      "난생": 9683,
      "동기": 9684,
      "레즈": 9685,
      "마주": 9686,
      "맛깔": 9687,
      "매혹": 9688,
      "무간": 9689,
      "백만": 9690,
      "별다르다": 9691,
      "불면": 9692,
      "불후": 9693,
      "빅뱅": 9694,
      "뺏다": 9695,
      "삼가다": 9696,
      "속이다": 9697,
      "야마": 9698,
      "엉덩이": 9699,
      "에릭": 9700,
      "용가리": 9701,
      "임권": 9702,
      "자매": 9703,
      "저렇게": 9704,
      "젊음": 9705,
      "짐승": 9706,
      "충무": 9707,
      "퍼즐": 9708,
      "펭귄": 9709,
      "하차": 9710,
      "현장": 9711,
      "현빈": 9712,
      "활약": 9713,
      "황홀": 9714,
      "훈련": 9715,
      "훔치다": 9716,
      "##ion": 9717,
      "##르르": 9718,
      "##상하다": 9719,
      "##린트": 9720,
      "##패스": 9721,
      "##센트": 9722,
      "##노잼노잼": 9723,
      "스티브": 9724,
      "와이프": 9725,
      "죄송하다": 9726,
      "박신양": 9727,
      "엔딩크레딧": 9728,
      "어떡하다": 9729,
      "http": 9730,
      "임권택": 9731,
      "bgm": 9732,
      "for": 9733,
      "거시": 9734,
      "기도": 9735,
      "김현": 9736,
      "꼬라지": 9737,
      "남매": 9738,
      "느슨": 9739,
      "덴젤": 9740,
      "독창": 9741,
      "동정": 9742,
      "무색": 9743,
      "보물": 9744,
      "부대": 9745,
      "비틀": 9746,
      "뻔히": 9747,
      "사로": 9748,
      "스미스": 9749,
      "습작": 9750,
      "시스": 9751,
      "어다가": 9752,
      "열자": 9753,
      "예의": 9754,
      "오토": 9755,
      "용감": 9756,
      "운전": 9757,
      "이념": 9758,
      "인가": 9759,
      "일탈": 9760,
      "임수정": 9761,
      "저녁": 9762,
      "정준": 9763,
      "정권": 9764,
      "지인": 9765,
      "진화": 9766,
      "창조": 9767,
      "최진": 9768,
      "추하다": 9769,
      "퀴어": 9770,
      "태권": 9771,
      "한지민": 9772,
      "허영": 9773,
      "휴먼": 9774,
      "히트": 9775,
      "##프라이즈": 9776,
      "##여주다": 9777,
      "##et": 9778,
      "##시원": 9779,
      "##시절": 9780,
      "##너지": 9781,
      "##효과": 9782,
      "##처럼": 9783,
      "##잡이": 9784,
      "##펜스": 9785,
      "ᆯ지라도": 9786,
      "2010": 9787,
      "어린아이": 9788,
      "치밀다": 9789,
      "자세히": 9790,
      "신세계": 9791,
      "핸드폰": 9792,
      "서스펜스": 9793,
      "망설이다": 9794,
      "더더욱": 9795,
      "베트남": 9796,
      "용두사미": 9797,
      "무간도": 9798,
      "가게": 9799,
      "곳곳": 9800,
      "그치": 9801,
      "날아가다": 9802,
      "닌자": 9803,
      "대략": 9804,
      "마초": 9805,
      "맡기다": 9806,
      "매회": 9807,
      "멸망": 9808,
      "미군": 9809,
      "부재": 9810,
      "비롯": 9811,
      "빌리": 9812,
      "사춘": 9813,
      "서인": 9814,
      "스마": 9815,
      "슬래셔": 9816,
      "실소": 9817,
      "아시아": 9818,
      "안경": 9819,
      "안티": 9820,
      "안되다": 9821,
      "언급": 9822,
      "여정": 9823,
      "여우": 9824,
      "와닿": 9825,
      "욕구": 9826,
      "원인": 9827,
      "유해": 9828,
      "은퇴": 9829,
      "이슈": 9830,
      "작렬": 9831,
      "잼잇": 9832,
      "저렴": 9833,
      "적응": 9834,
      "절절": 9835,
      "진작": 9836,
      "짜내다": 9837,
      "쫄깃": 9838,
      "차기": 9839,
      "파일": 9840,
      "##리쉬": 9841,
      "##ill": 9842,
      "##현준": 9843,
      "##ff": 9844,
      "##인간": 9845,
      "##11": 9846,
      "##짜다": 9847,
      "##므로": 9848,
      "##맹랑": 9849,
      "지금껏": 9850,
      "일본판": 9851,
      "재밋네요": 9852,
      "케이트": 9853,
      "허무맹랑": 9854,
      "강렬하다": 9855,
      "프레데": 9856,
      "홍진호": 9857,
      "신민아": 9858,
      "이스트우드": 9859,
      "크리스토퍼": 9860,
      "가운데": 9861,
      "불면증": 9862,
      "사춘기": 9863,
      "go": 9864,
      "ᆫ걸": 9865,
      "교감": 9866,
      "귀요미": 9867,
      "극한": 9868,
      "내러티브": 9869,
      "농구": 9870,
      "다수": 9871,
      "다케": 9872,
      "땡기다": 9873,
      "마크": 9874,
      "므로": 9875,
      "미인": 9876,
      "미개": 9877,
      "버금": 9878,
      "불리다": 9879,
      "비난": 9880,
      "샤를": 9881,
      "서우": 9882,
      "서극": 9883,
      "소방": 9884,
      "수업": 9885,
      "스무": 9886,
      "썰렁": 9887,
      "아여": 9888,
      "앵글": 9889,
      "우익": 9890,
      "유부": 9891,
      "유오": 9892,
      "이어": 9893,
      "일제": 9894,
      "장나라": 9895,
      "저번": 9896,
      "제한": 9897,
      "진주": 9898,
      "창의": 9899,
      "초등": 9900,
      "측면": 9901,
      "컨저": 9902,
      "타락": 9903,
      "토요": 9904,
      "펼쳐지다": 9905,
      "피라": 9906,
      "현지": 9907,
      "혹성": 9908,
      "황비": 9909,
      "휴가": 9910,
      "##네마": 9911,
      "##내리다": 9912,
      "##니버스": 9913,
      "##지우": 9914,
      "##져스": 9915,
      "##un": 9916,
      "##탈출": 9917,
      "##ve": 9918,
      "##싱턴": 9919,
      "##피아": 9920,
      "대단히": 9921,
      "적절히": 9922,
      "자본주의": 9923,
      "리즈시절": 9924,
      "김선아": 9925,
      "로보캅": 9926,
      "강호동": 9927,
      "정재영": 9928,
      "유오성": 9929,
      "컨저링": 9930,
      "황비홍": 9931,
      "im": 9932,
      "가미": 9933,
      "간절": 9934,
      "거창": 9935,
      "건너": 9936,
      "경쾌": 9937,
      "귀여": 9938,
      "금요일": 9939,
      "김재": 9940,
      "김강": 9941,
      "나발": 9942,
      "다치다": 9943,
      "단언": 9944,
      "덕후": 9945,
      "딱딱": 9946,
      "뛰쳐": 9947,
      "리라": 9948,
      "벌이다": 9949,
      "부시다": 9950,
      "상쾌": 9951,
      "서프라이즈": 9952,
      "성유리": 9953,
      "소박": 9954,
      "신성": 9955,
      "실컷": 9956,
      "씹다": 9957,
      "안정": 9958,
      "여동생": 9959,
      "오류": 9960,
      "외우다": 9961,
      "요구": 9962,
      "요원": 9963,
      "워싱턴": 9964,
      "이선": 9965,
      "이재": 9966,
      "자존": 9967,
      "재기": 9968,
      "제정신": 9969,
      "조인": 9970,
      "주체": 9971,
      "직원": 9972,
      "진보": 9973,
      "집다": 9974,
      "최하": 9975,
      "추락": 9976,
      "카드": 9977,
      "코스트": 9978,
      "크리": 9979,
      "클럽": 9980,
      "패턴": 9981,
      "하야": 9982,
      "한두": 9983,
      "헐크": 9984,
      "##리칸": 9985,
      "##마르다": 9986,
      "##디션": 9987,
      "##범수": 9988,
      "어야죠": 9989,
      "솔직하다": 9990,
      "그러니까": 9991,
      "대표작": 9992,
      "어지간": 9993,
      "서부극": 9994,
      "신파극": 9995,
      "인디아나": 9996,
      "이민기": 9997,
      "♡♡♡": 9998,
      "오리지널": 9999,
      "빠순이": 10000,
      "리브스": 10001,
      "와닿다": 10002,
      "프레데터": 10003,
      "김강우": 10004,
      "23": 10005,
      "bbb": 10006,
      "갑갑": 10007,
      "고기": 10008,
      "고찰": 10009,
      "금방": 10010,
      "기차": 10011,
      "기계": 10012,
      "깔리다": 10013,
      "넓다": 10014,
      "녹화": 10015,
      "다문화": 10016,
      "동일": 10017,
      "로렌스": 10018,
      "루이스": 10019,
      "르네": 10020,
      "머피": 10021,
      "미키": 10022,
      "벌리다": 10023,
      "법칙": 10024,
      "붉다": 10025,
      "비명": 10026,
      "빼놓다": 10027,
      "뽕짝": 10028,
      "사토": 10029,
      "삽입": 10030,
      "새로": 10031,
      "승화": 10032,
      "아일": 10033,
      "악평": 10034,
      "악몽": 10035,
      "안전": 10036,
      "압박": 10037,
      "외화": 10038,
      "우수": 10039,
      "육체": 10040,
      "이영": 10041,
      "이완": 10042,
      "자빠지다": 10043,
      "장인": 10044,
      "장쯔": 10045,
      "조쉬": 10046,
      "종일": 10047,
      "추잡": 10048,
      "춥다": 10049,
      "치명": 10050,
      "침몰": 10051,
      "켜다": 10052,
      "콘서트": 10053,
      "클린트": 10054,
      "트루": 10055,
      "페이지": 10056,
      "평정": 10057,
      "해내다": 10058,
      "환불": 10059,
      "##아나다": 10060,
      "##리나": 10061,
      "##프만": 10062,
      "##구석": 10063,
      "##ch": 10064,
      "##어마": 10065,
      "##러리": 10066,
      "##런스": 10067,
      "##무니": 10068,
      "##서블": 10069,
      "##22": 10070,
      "##않다": 10071,
      "##소니": 10072,
      "##♡♥": 10073,
      "연기파": 10074,
      "ㅠㅠㅠㅠㅠㅠㅠㅠㅠㅠ": 10075,
      "영상물": 10076,
      "개봉작": 10077,
      "ᆫ다는데": 10078,
      "멍청이": 10079,
      "레이싱": 10080,
      "으려는": 10081,
      "에이리언": 10082,
      "어처구니없다": 10083,
      "바이러스": 10084,
      "이성재": 10085,
      "프레디": 10086,
      "두근거리다": 10087,
      "담백하다": 10088,
      "오글거림": 10089,
      "가져오다": 10090,
      "윌리엄스": 10091,
      "한예슬": 10092,
      "어마어마": 10093,
      "충무로": 10094,
      "버금가다": 10095,
      "혹성탈출": 10096,
      "조인성": 10097,
      "장쯔이": 10098,
      "ㄴㄴ": 10099,
      "가사": 10100,
      "가위": 10101,
      "건드리다": 10102,
      "고려": 10103,
      "공산": 10104,
      "구로": 10105,
      "굳굳": 10106,
      "김하늘": 10107,
      "깨지다": 10108,
      "꼴리다": 10109,
      "닦다": 10110,
      "동료": 10111,
      "루크": 10112,
      "맥스": 10113,
      "머지": 10114,
      "몰아": 10115,
      "미루다": 10116,
      "사연": 10117,
      "쌓이다": 10118,
      "아아아": 10119,
      "알차다": 10120,
      "에반": 10121,
      "옹호": 10122,
      "원표": 10123,
      "인지": 10124,
      "일기": 10125,
      "임파": 10126,
      "정성": 10127,
      "조각": 10128,
      "졸음": 10129,
      "주일": 10130,
      "쥐어": 10131,
      "치열": 10132,
      "클루": 10133,
      "투박": 10134,
      "필수": 10135,
      "한없이": 10136,
      "해적": 10137,
      "허전": 10138,
      "호소": 10139,
      "##의식": 10140,
      "##네유": 10141,
      "##나미": 10142,
      "##따구": 10143,
      "##ain": 10144,
      "##스라": 10145,
      "##어어": 10146,
      "##메오": 10147,
      "##세계": 10148,
      "##히히": 10149,
      "##생활": 10150,
      "##ㅡㅡ": 10151,
      "##괴담": 10152,
      "##랑이": 10153,
      "##틀러": 10154,
      "##길래": 10155,
      "##팔이": 10156,
      "##얗다": 10157,
      "##납다": 10158,
      "영화인": 10159,
      "ᆫ데요": 10160,
      "쓰레기통": 10161,
      "ㅋㅋㅋㅋㅋㅋㅋㅋㅋㅋㅋㅋㅋㅋㅋㅋㅋㅋㅋㅋㅋㅋㅋㅋㅋㅋㅋ": 10162,
      "2008": 10163,
      "에로틱": 10164,
      "현대인": 10165,
      "인터스텔": 10166,
      "민망하다": 10167,
      "웬만하다": 10168,
      "변호사": 10169,
      "그치만": 10170,
      "임파서블": 10171,
      "인터스텔라": 10172,
      "95": 10173,
      "감당": 10174,
      "개떡": 10175,
      "건축": 10176,
      "공상": 10177,
      "괴롭": 10178,
      "구매": 10179,
      "균형": 10180,
      "기원": 10181,
      "기쁨": 10182,
      "까먹다": 10183,
      "단조": 10184,
      "대리": 10185,
      "드시다": 10186,
      "마땅": 10187,
      "매트릭스": 10188,
      "무능": 10189,
      "문명": 10190,
      "미친": 10191,
      "밟다": 10192,
      "본드": 10193,
      "사납다": 10194,
      "서민": 10195,
      "선전": 10196,
      "선배": 10197,
      "소림": 10198,
      "수백": 10199,
      "스탈": 10200,
      "아파": 10201,
      "암살": 10202,
      "얼른": 10203,
      "연쇄": 10204,
      "엿보다": 10205,
      "유작": 10206,
      "일대기": 10207,
      "자제": 10208,
      "저버리다": 10209,
      "제법": 10210,
      "진구": 10211,
      "쫓다": 10212,
      "커지다": 10213,
      "크로우": 10214,
      "탕웨이": 10215,
      "털다": 10216,
      "한때": 10217,
      "허준": 10218,
      "헬기": 10219,
      "회장": 10220,
      "휴지": 10221,
      "휴머니": 10222,
      "##가니": 10223,
      "##ld": 10224,
      "##규리": 10225,
      "##스코": 10226,
      "##두근": 10227,
      "##매다": 10228,
      "##서린": 10229,
      "사다코": 10230,
      "어느새": 10231,
      "2009": 10232,
      "2001": 10233,
      "관계자": 10234,
      "유아인": 10235,
      "으라고": 10236,
      "두근두근": 10237,
      "줄리엣": 10238,
      "어째서": 10239,
      "아메리칸": 10240,
      "초중반": 10241,
      "박해일": 10242,
      "하야오": 10243,
      "27": 10244,
      "na": 10245,
      "sn": 10246,
      "고아": 10247,
      "공존": 10248,
      "괴작": 10249,
      "권하다": 10250,
      "그룹": 10251,
      "나약": 10252,
      "나아지다": 10253,
      "넘버": 10254,
      "눈부": 10255,
      "달러": 10256,
      "마츠": 10257,
      "무덤": 10258,
      "발생": 10259,
      "복제": 10260,
      "불꽃": 10261,
      "붕괴": 10262,
      "빼앗": 10263,
      "삼국": 10264,
      "서세": 10265,
      "성향": 10266,
      "소비": 10267,
      "아랫": 10268,
      "안젤": 10269,
      "에여": 10270,
      "운운": 10271,
      "원빈": 10272,
      "유도": 10273,
      "은은": 10274,
      "중후": 10275,
      "지성": 10276,
      "질투": 10277,
      "찌푸": 10278,
      "참혹": 10279,
      "처참": 10280,
      "철저": 10281,
      "택하다": 10282,
      "파고": 10283,
      "평이": 10284,
      "폭파": 10285,
      "플래": 10286,
      "헌터": 10287,
      "형성": 10288,
      "흔히": 10289,
      "##일체": 10290,
      "##버리": 10291,
      "##리어": 10292,
      "##프리": 10293,
      "##th": 10294,
      "##타클": 10295,
      "##ht": 10296,
      "##카시": 10297,
      "##메다": 10298,
      "##비디오": 10299,
      "##젝트": 10300,
      "다가가다": 10301,
      "수준급": 10302,
      "프로젝트": 10303,
      "주제가": 10304,
      "2011": 10305,
      "여전하다": 10306,
      "this": 10307,
      "ㅠㅠㅠㅠㅠ": 10308,
      "투자자": 10309,
      "해리슨": 10310,
      "끔찍하다": 10311,
      "박신혜": 10312,
      "되돌아보다": 10313,
      "지하철": 10314,
      "가만히": 10315,
      "어벤져스": 10316,
      "엑소시스트": 10317,
      "을려고": 10318,
      "잠수함": 10319,
      "코스트너": 10320,
      "눈부시다": 10321,
      "찌푸리다": 10322,
      "97": 10323,
      "ever": 10324,
      "ᆯ란다": 10325,
      "각성": 10326,
      "거울": 10327,
      "공격": 10328,
      "근육": 10329,
      "기르다": 10330,
      "김동": 10331,
      "까메오": 10332,
      "다기": 10333,
      "대책": 10334,
      "동원": 10335,
      "동아리": 10336,
      "띄우다": 10337,
      "멋대로": 10338,
      "명예": 10339,
      "묘미": 10340,
      "문근": 10341,
      "미지": 10342,
      "배틀": 10343,
      "병사": 10344,
      "보장": 10345,
      "보스": 10346,
      "불사": 10347,
      "비유": 10348,
      "사정": 10349,
      "사냥": 10350,
      "샤이": 10351,
      "서기": 10352,
      "서영": 10353,
      "설치다": 10354,
      "신앙": 10355,
      "실존": 10356,
      "쓰렉": 10357,
      "씨네": 10358,
      "안나": 10359,
      "알맹이": 10360,
      "어둠": 10361,
      "얽히다": 10362,
      "에니": 10363,
      "여진": 10364,
      "오오": 10365,
      "옴니버스": 10366,
      "유희": 10367,
      "이슬": 10368,
      "이건": 10369,
      "쩌네": 10370,
      "최저": 10371,
      "카타": 10372,
      "털리다": 10373,
      "테이크": 10374,
      "통일": 10375,
      "판타": 10376,
      "퍼스": 10377,
      "퍼지다": 10378,
      "프렌": 10379,
      "필립": 10380,
      "흡사": 10381,
      "##장난": 10382,
      "##슬기": 10383,
      "##작스럽다": 10384,
      "##니어": 10385,
      "##어놓다": 10386,
      "##려지다": 10387,
      "##그래": 10388,
      "##재현": 10389,
      "##45": 10390,
      "##혜정": 10391,
      "##필드": 10392,
      "재밋고": 10393,
      "코믹물": 10394,
      "ㅋㅋㅋㅋㅋㅋㅋㅋㅋㅋㅋㅋㅋㅋ": 10395,
      "2002": 10396,
      "120": 10397,
      "아마도": 10398,
      "##oooooooo": 10399,
      "집어넣다": 10400,
      "##1010": 10401,
      "손꼽히다": 10402,
      "그렇지만": 10403,
      "괴롭히다": 10404,
      "문근영": 10405,
      "bl": 10406,
      "ne": 10407,
      "각인": 10408,
      "개코": 10409,
      "개월": 10410,
      "결제": 10411,
      "광주": 10412,
      "끝장": 10413,
      "뇌리": 10414,
      "다듬다": 10415,
      "당최": 10416,
      "대만": 10417,
      "독재": 10418,
      "독백": 10419,
      "동방": 10420,
      "되새": 10421,
      "뚜렷": 10422,
      "로멘": 10423,
      "롯데": 10424,
      "리플": 10425,
      "리들리": 10426,
      "마술": 10427,
      "명량": 10428,
      "몰래": 10429,
      "몸부림": 10430,
      "물질": 10431,
      "바끼다": 10432,
      "박지": 10433,
      "발톱": 10434,
      "베다": 10435,
      "사소": 10436,
      "수호": 10437,
      "스칼": 10438,
      "신은경": 10439,
      "아키": 10440,
      "어딨": 10441,
      "엑스트라": 10442,
      "연구": 10443,
      "요란": 10444,
      "워커": 10445,
      "원맨": 10446,
      "이범수": 10447,
      "자질": 10448,
      "작업": 10449,
      "잘되다": 10450,
      "전통": 10451,
      "조리": 10452,
      "졸잼": 10453,
      "졸립다": 10454,
      "종말": 10455,
      "좌파": 10456,
      "캐서린": 10457,
      "콧물": 10458,
      "태극": 10459,
      "토마스": 10460,
      "팬더": 10461,
      "페이스": 10462,
      "한물": 10463,
      "함정": 10464,
      "현상": 10465,
      "형님": 10466,
      "호평": 10467,
      "화해": 10468,
      "확신": 10469,
      "후유": 10470,
      "흥겹다": 10471,
      "희극": 10472,
      "히치": 10473,
      "##지않다": 10474,
      "##all": 10475,
      "##하면": 10476,
      "##스레": 10477,
      "##고은": 10478,
      "##op": 10479,
      "##르시스": 10480,
      "##브이": 10481,
      "##는데": 10482,
      "##무시": 10483,
      "##새끼": 10484,
      "##셉션": 10485,
      "그리스": 10486,
      "이나마": 10487,
      "일본어": 10488,
      "세상에": 10489,
      "미국판": 10490,
      "##라이트": 10491,
      "크리스틴": 10492,
      "스포일러": 10493,
      "##ent": 10494,
      "와이어": 10495,
      "이동욱": 10496,
      "뮤직비디오": 10497,
      "이종석": 10498,
      "관대하다": 10499,
      "시스템": 10500,
      "쥐어짜다": 10501,
      "클루니": 10502,
      "휴머니즘": 10503,
      "서세원": 10504,
      "스칼렛": 10505,
      "어딨다": 10506,
      "88": 10507,
      "up": 10508,
      "ㅅㅅ": 10509,
      "강혜정": 10510,
      "결투": 10511,
      "경쟁": 10512,
      "고래": 10513,
      "고는": 10514,
      "교차": 10515,
      "군데": 10516,
      "그로": 10517,
      "근거": 10518,
      "기묘": 10519,
      "나아가다": 10520,
      "대가": 10521,
      "더구": 10522,
      "돌이": 10523,
      "동의": 10524,
      "만지다": 10525,
      "망신": 10526,
      "못지않다": 10527,
      "무미": 10528,
      "미남": 10529,
      "발휘": 10530,
      "발암": 10531,
      "보이": 10532,
      "보지마": 10533,
      "서서": 10534,
      "수영": 10535,
      "수단": 10536,
      "스치다": 10537,
      "신들리다": 10538,
      "아시": 10539,
      "아야": 10540,
      "압축": 10541,
      "앞부분": 10542,
      "어줍": 10543,
      "에스": 10544,
      "연계": 10545,
      "오덕": 10546,
      "으아": 10547,
      "은희": 10548,
      "이주": 10549,
      "이경": 10550,
      "인셉션": 10551,
      "일다": 10552,
      "전무": 10553,
      "제리": 10554,
      "제미": 10555,
      "조성": 10556,
      "조국": 10557,
      "지진희": 10558,
      "진솔": 10559,
      "차지": 10560,
      "천하": 10561,
      "추적": 10562,
      "토이": 10563,
      "통틀": 10564,
      "특성": 10565,
      "하필": 10566,
      "핵심": 10567,
      "행운": 10568,
      "혼나다": 10569,
      "훼손": 10570,
      "희한": 10571,
      "##달다": 10572,
      "##일으키다": 10573,
      "##버트": 10574,
      "##ul": 10575,
      "##하니": 10576,
      "##못해": 10577,
      "##블리": 10578,
      "##간이": 10579,
      "##만다": 10580,
      "##볼타": 10581,
      "##망작": 10582,
      "##킨스": 10583,
      "##듣다": 10584,
      "##ㅗㅗ": 10585,
      "하다못해": 10586,
      "아이리스": 10587,
      "실망감": 10588,
      "라면서": 10589,
      "출연료": 10590,
      "자신감": 10591,
      "가치관": 10592,
      "모자르다": 10593,
      "스트립": 10594,
      "조선족": 10595,
      "하여금": 10596,
      "민주주의": 10597,
      "이승기": 10598,
      "고소영": 10599,
      "불러일으키다": 10600,
      "오토바이": 10601,
      "이선균": 10602,
      "자존심": 10603,
      "naver": 10604,
      "판타스틱": 10605,
      "원맨쇼": 10606,
      "히치콕": 10607,
      "la": 10608,
      "걸레": 10609,
      "고고": 10610,
      "공효진": 10611,
      "과제": 10612,
      "깜찍": 10613,
      "꾸준": 10614,
      "내공": 10615,
      "높이": 10616,
      "느끼": 10617,
      "대변": 10618,
      "도다": 10619,
      "동급": 10620,
      "두말": 10621,
      "뒤통": 10622,
      "들이": 10623,
      "디비": 10624,
      "때다": 10625,
      "라디오": 10626,
      "명곡": 10627,
      "모건": 10628,
      "발하다": 10629,
      "배다": 10630,
      "배속": 10631,
      "보아": 10632,
      "살아오다": 10633,
      "선입": 10634,
      "세이": 10635,
      "수애": 10636,
      "스탤": 10637,
      "아따": 10638,
      "아르": 10639,
      "앨런": 10640,
      "약자": 10641,
      "어쨋": 10642,
      "언더": 10643,
      "에너지": 10644,
      "연민": 10645,
      "오싹": 10646,
      "위치": 10647,
      "으으": 10648,
      "을걸": 10649,
      "자아내다": 10650,
      "작작": 10651,
      "정글": 10652,
      "제도": 10653,
      "조커": 10654,
      "중세": 10655,
      "지난": 10656,
      "직전": 10657,
      "초심": 10658,
      "충만": 10659,
      "터무니": 10660,
      "팔마": 10661,
      "팬심": 10662,
      "폭탄": 10663,
      "표본": 10664,
      "피우다": 10665,
      "하트": 10666,
      "황진": 10667,
      "황제": 10668,
      "##치기": 10669,
      "##이드": 10670,
      "##라잇": 10671,
      "##여정": 10672,
      "##에르": 10673,
      "##기리": 10674,
      "##el": 10675,
      "##현정": 10676,
      "##드벤": 10677,
      "##유혼": 10678,
      "##레미": 10679,
      "##은혜": 10680,
      "##녀유혼": 10681,
      "##ㅉㅉ": 10682,
      "##캔들": 10683,
      "궁금증": 10684,
      "그림자": 10685,
      "어찌나": 10686,
      "케릭터": 10687,
      "오글거려": 10688,
      "모니터": 10689,
      "그럴싸하다": 10690,
      "거시기": 10691,
      "최진실": 10692,
      "서인국": 10693,
      "스마트": 10694,
      "카타르시스": 10695,
      "후유증": 10696,
      "뒤통수": 10697,
      "스탤론": 10698,
      "an": 10699,
      "tr": 10700,
      "가요": 10701,
      "가면": 10702,
      "갈다": 10703,
      "고마": 10704,
      "고현정": 10705,
      "관념": 10706,
      "글로": 10707,
      "기부": 10708,
      "단막": 10709,
      "도박": 10710,
      "독도": 10711,
      "랍시고": 10712,
      "린치": 10713,
      "마련": 10714,
      "만만": 10715,
      "맞먹다": 10716,
      "매년": 10717,
      "매튜": 10718,
      "맥어": 10719,
      "멍하다": 10720,
      "며칠": 10721,
      "모래": 10722,
      "목표": 10723,
      "무적": 10724,
      "미만": 10725,
      "민영": 10726,
      "받치다": 10727,
      "방어": 10728,
      "변명": 10729,
      "사막": 10730,
      "산드라": 10731,
      "성괴": 10732,
      "속상하다": 10733,
      "슈스케": 10734,
      "스님": 10735,
      "스탭": 10736,
      "슬로우": 10737,
      "신동": 10738,
      "쌍욕": 10739,
      "쏠쏠": 10740,
      "아휴": 10741,
      "안목": 10742,
      "어필": 10743,
      "엠씨": 10744,
      "완결": 10745,
      "우마": 10746,
      "우기다": 10747,
      "유역": 10748,
      "윤계": 10749,
      "으므로": 10750,
      "은행": 10751,
      "의아": 10752,
      "이고": 10753,
      "이틀": 10754,
      "인피": 10755,
      "자전": 10756,
      "작살": 10757,
      "재판": 10758,
      "제인": 10759,
      "조디": 10760,
      "조재현": 10761,
      "주식": 10762,
      "줄줄": 10763,
      "중구": 10764,
      "처먹다": 10765,
      "천박": 10766,
      "천녀유혼": 10767,
      "초콜": 10768,
      "최지우": 10769,
      "충동": 10770,
      "테론": 10771,
      "파멸": 10772,
      "패닝": 10773,
      "팬티": 10774,
      "퍼펙트": 10775,
      "필모": 10776,
      "하얗다": 10777,
      "한결": 10778,
      "호프만": 10779,
      "홍수": 10780,
      "회복": 10781,
      "효민": 10782,
      "##이야": 10783,
      "##명화": 10784,
      "##현우": 10785,
      "##래원": 10786,
      "##동대": 10787,
      "##db": 10788,
      "##전결": 10789,
      "##각기": 10790,
      "##21": 10791,
      "##쟁이": 10792,
      "에서부터": 10793,
      "스토리텔": 10794,
      "시대상": 10795,
      "더니만": 10796,
      "오래전": 10797,
      "굉장하다": 10798,
      "케이스": 10799,
      "2007": 10800,
      "으려나": 10801,
      "이정현": 10802,
      "이만큼": 10803,
      "not": 10804,
      "유행어": 10805,
      "what": 10806,
      "더라고요": 10807,
      "기승전결": 10808,
      "트라볼타": 10809,
      "끊임없이": 10810,
      "토요명화": 10811,
      "서서히": 10812,
      "선입견": 10813,
      "어쨋든": 10814,
      "단막극": 10815,
      "윤계상": 10816,
      "감싸다": 10817,
      "개미": 10818,
      "건물": 10819,
      "고만": 10820,
      "김보": 10821,
      "김래원": 10822,
      "누리다": 10823,
      "달려가다": 10824,
      "대구": 10825,
      "도구": 10826,
      "돌아다니다": 10827,
      "든데": 10828,
      "듣보": 10829,
      "래도": 10830,
      "로메": 10831,
      "마니아": 10832,
      "모처럼": 10833,
      "물리": 10834,
      "박자": 10835,
      "벌레": 10836,
      "봉태": 10837,
      "뽀로로": 10838,
      "상하다": 10839,
      "선교": 10840,
      "성지": 10841,
      "수지": 10842,
      "수퍼": 10843,
      "수식": 10844,
      "숭고": 10845,
      "실체": 10846,
      "써먹다": 10847,
      "쓰나미": 10848,
      "아트": 10849,
      "아만다": 10850,
      "약속": 10851,
      "어깨": 10852,
      "어메이": 10853,
      "어드벤": 10854,
      "역부": 10855,
      "역쉬": 10856,
      "오디션": 10857,
      "유기": 10858,
      "유전": 10859,
      "인공": 10860,
      "인증": 10861,
      "잉여": 10862,
      "자료": 10863,
      "자칫": 10864,
      "잡스": 10865,
      "잼있": 10866,
      "제레미": 10867,
      "좌절": 10868,
      "주장": 10869,
      "지혜": 10870,
      "진출": 10871,
      "찍히다": 10872,
      "쳐다보다": 10873,
      "친하다": 10874,
      "캡틴": 10875,
      "쿠삭": 10876,
      "토미": 10877,
      "편히": 10878,
      "하우스": 10879,
      "##일드": 10880,
      "##키오": 10881,
      "##마루": 10882,
      "##니트": 10883,
      "##니발": 10884,
      "##ap": 10885,
      "##세이": 10886,
      "##런지": 10887,
      "##듯하다": 10888,
      "##공주": 10889,
      "##민서": 10890,
      "##칠이": 10891,
      "##윌리스": 10892,
      "##총사": 10893,
      "##책감": 10894,
      "다면서": 10895,
      "재밋네": 10896,
      "완벽히": 10897,
      "이름값": 10898,
      "스타일리쉬": 10899,
      "우울증": 10900,
      "##ant": 10901,
      "적절하다": 10902,
      "책임감": 10903,
      "140": 10904,
      "브루스윌리스": 10905,
      "사이코패스": 10906,
[...]
